[UNK]
[CLS]
[SEP]
[PAD]
[MASK]







!
"
#
$
%
&
'
(
)
*
+
,
-
.
/
0
1
2
3
4
5
6
7
8
9
:
;
=
>
?
@
[
\
]
^
_
`
a
b
c
d
e
f
g
h
i
j
k
l
m
n
o
p
q
r
s
t
u
v
w
x
y
z
{
|
}
~


¡
¢
£
¦
§
¨
ª
¬
­
¯
°
±
³
µ
¶
·
»
¼
½
¾
÷
œ
ʾ
΄
α
β
γ
δ
ε
ζ
η
θ
ι
κ
λ
μ
ν
ξ
ο
π
ρ
ς
σ
τ
υ
φ
χ
ψ
ω
ϑ
ϰ
а
в
г
е
и
н
о
р
с
т
х
ч
я
׃
א
ב
ג
ד
ה
ו
ז
ח
ט
י
ך
כ
ל
ם
מ
ן
נ
ס
ע
ף
פ
ץ
צ
ק
ר
ש
ת
װ
ױ
ײ
״
ا
ة
ت
ج
ر
ش
ع
غ
ف
و
ي
٠
١
٢
٣
٤
٥
٦
٨
ᵃ
ᵈ
ᵉ
ᶜ
ᶠ
᾽
᾿
῾
​
‌
‍
‎
‏
‑
’
„
•
…
‪
‫
‬
₂
₪
⅐
⅛
⅜
⅝
←
−
╔
▪
○
★
☜
♦
⚄
✍
✭
❖









ﬠ
ﬡ
ﬢ
ﬣ
ﬥ
ﬦ
ﬧ
ﬨ
ﭏ
﻿
�
##ב
##א
##ג
##"
##מ
##ו
##ח
##ה
##ל
##י
##נ
##ש
##ן
##ס
##ר
##ד
##כ
##'
##פ
##ע
##ת
##ק
##ט
##ז
##ם
##ך
##צ
##ף
##a
##t
##e
##h
##l
##c
##i
##r
##5
##3
##9
##ץ
##8
##0
##z
##7
##2
##n
##s
##p
##o
##u
##4
##d
##m
##6
##b
##x
##g
##.
##1
##y
##w
##k
##f
##ﬠ
##_
##,
##υ
##λ
##α
##χ
##η
##q
##ι
##π
##ε
##ν
##γ
##τ
##ο
##*
##)
##?
##ª
##v
##δ
##κ
##ς
##:
##j
##]
##‎
##!
##=
##ω
##φ
##θ
##μ
##β
##~
##§
##ρ
##σ
##‏
##;
##‫
##{
##○
##|
##…
##‬
##(
##ξ
##ﭏ
###
##-
##[
##@
##ϰ
##¬
##ﬨ
##ζ
##}
##&
##ʾ
##ﬦ
##‌
##\
##$
##/
##✭
##ψ
##ﬣ
##­
##٠
##ᵃ
##ᵈ
##ع
##ف
##
##‪
##°
##
##ﬥ
##✍
##
##
##³
##ײ
##%
##÷
##и
##х
##о
##н
##р
##а
##в
##﻿
##+
##^
##µ
##ч
##е
##я
##¨
##ﬢ
##ﬧ
##
##
##’
##٨
##ﬡ
##​
##ᶜ
##‍
##¶
##٥
##װ
##
##œ
##٦
##¾
##ت
##ر
##׃
##·
##٢
##ױ
##ᶠ
##ا
##ي
##ة
##>
##ᵉ
##
##ות
##ים
##ין
##ור
##רי
##לא
##ינ
##יה
##מר
##יו
לא
##וא
##ול
##ני
##יר
וא
##ית
##בר
וה
##לו
##שו
על
##רא
וכ
##מו
לה
שה
##יא
##וד
##תו
##"ל
##נה
##ינו
##לה
##שה
##נו
##מי
##מה
##פי
##כל
שא
##רו
##יב
##מא
דא
##רב
המ
##יש
##זה
##יד
הוא
הא
לו
##בל
אח
כל
##שר
של
##יל
##ו'
מה
ומ
או
וב
את
##"ש
##וש
בע
כי
##י'
##"כ
##פר
זה
##תב
בה
##מע
אלא
בש
##קו
יש
הש
בא
דה
וע
ול
##תי
##די
מש
##וב
במ
שב
ולא
לע
רב
##"י
##נא
אם
##לי
הע
אבל
##"ה
דב
##כה
##ון
##וה
##וי
אין
##ורה
##"א
##צא
מע
##כא
אמר
##יע
אי
##אי
##נים
##מת
שם
שלא
הב
##מן
##דו
##כי
##יק
##מים
##דר
הת
##נן
##עת
##חי
לב
יו
שכ
##נין
הק
הנ
##חו
##יון
##שב
הר
##"ד
אל
##סור
שנ
##מש
עד
מצ
הי
##"מ
##דם
רא
הג
##שום
##כר
ונ
מת
אות
למ
##כו
כן
##שי
בת
היה
##כת
וכו'
מו
מא
##ותר
##עה
בס
##יי
##ריך
##שא
יה
בפ
שהוא
בח
אחר
שמ
##ראל
בר
לי
בו
כו'
משום
הד
מד
##"ג
##ינן
##שת
##וק
##"ז
כא
דלא
##ולם
##בה
וכן
##נות
##שון
##על
בד
הח
מן
##ינה
כתב
##קום
לח
וג
וש
כמו
דבר
לפ
##בי
דמ
##תה
##ראה
##זר
##חר
חי
##בד
מק
##כול
##צה
לק
לש
##תא
##כות
##מות
אינו
מח
##פס
ליה
##ברי
היא
שאין
גם
##לק
##"ב
אפי
##וס
ממ
דר
##אמר
מי
##יהם
בג
ז"ל
##דש
רק
##מרי
##פק
##טה
הל
##שות
בב
ישראל
מל
וד
##רה
זו
כד
מב
לד
##טל
לומר
##"ם
כיון
##טע
##מב
אחד
##כן
##יתא
בכל
##טר
שי
##"פ
דק
##"ח
ה'
עצ
שע
##וף
אף
##ודה
וי
דל
בין
מפ
הרא
##מד
ואם
##תוב
אב
##זק
הרי
##כך
ית
##נת
##חה
##סת
בק
##חת
אשר
##ולה
היו
הה
הכ
##ופ
בזה
##צר
דברי
##סי
פר
אומר
וזה
##חד
עליו
לפי
##ירוש
##שים
##טא
וק
נת
##"ק
יע
##ירה
##"ע
שו
##רץ
##דה
פס
##יין
ואין
שיש
##ירו
לג
טע
הס
בל
##"ת
##נס
##כם
עו
##ש"י
##יני
##בו
ות
הפ
נמי
##בת
הו
##יהו
כש
##תוס
יד
##חות
צריך
##פל
##"ט
אדם
##פה
##יות
והוא
##תם
##יתה
##חל
##אר
כלל
בי
נק
##צו
דע
בכ
כאן
להם
##"ו
##ציא
מס
כך
##מ"ש
עם
##ביא
##גד
יכול
##בע
##פשר
הם
גד
הוי
בנ
##יום
##קה
כנ
ויש
ור
##מור
אפילו
##בוד
##את
אותו
דהא
אסור
עכ
##מב"ם
מכ
##טו
##טור
##פיר
##מצא
##בור
##לים
##קים
וח
כלו
שאמר
שני
דכ
לאו
הרב
##זו
שכתב
##סר
חו
לת
##פש
##אה
חייב
##גי
ר'
ביד
בני
##קב
מקום
כה
##קי
שמע
##דוש
אע
רו
##"ר
דרב
לך
##מרינן
בית
##מוד
כדי
וז
##פי'
##ודם
למע
##רע
למי
##מרא
דס
הז
שנא
בעל
טוב
##ברך
נראה
מפני
שת
היינו
מותר
##גו
##פרש
משמע
וכל
כר
כת
##נם
##לות
לר
עוד
דש
##עי
##ירות
הצ
סי'
##דים
רבינו
דאי
##בא
##חז
יום
ידי
##מין
בן
שאינו
שיה
נא
##סף
##יינו
##"ן
##יתי
##פת
אלו
עצמו
##כים
##ברים
ועל
##חייב
הכל
אז
##מאי
##פו
ברי
יותר
##לוק
לכ
##עשה
דג
##עים
התורה
##כין
##תוך
סי
##כתיב
והא
כו
מר
##ינא
##ומר
שק
ואי
##ותו
ואמר
אלה
וגם
##ורי
##לך
דת
דאין
נכ
להו
##יקר
##ואר
הזה
בלא
אפי'
".
א'
##ברא
##למי
רבי
שהיה
##רוב
ני
##הם
##כח
##עו
וא"כ
דמי
שלו
ומה
אש
דין
##חק
##גל
##מ'
גדול
##טעם
##נית
##תוס'
הכי
בז
##וקא
##חים
דו
שהרי
איסור
הרמב"ם
##לת
##"נ
##רים
וגו'
אחת
פי
דאמר
למה
ב'
אפשר
##לם
מכל
אצ
די
ועוד
להת
שבת
תורה
##פות
מאי
מלא
##חלה
א"כ
לכל
##לוה
וצ
קודם
והנה
##ואל
##שוב
##דא
המו
מיד
ע"כ
ממנו
אמ
##ולי
ע"ש
גבי
אך
כג
##מאה
##פילו
רש"י
פי'
עכ"ל
אני
##ינת
בשם
חכ
##עות
ודאי
##"ס
כמ"ש
לשון
בפר
מ"מ
דעת
נח
אה
##כב
שנאמר
וס
משה
סו
מג
שש
##טי
ומש
דנ
הוה
המש
שהם
ג"כ
מנ
##צי
לעשות
##צת
בהם
שמא
##ואה
הנה
אמרו
תק
##צות
לרב
במקום
עליה
ע"י
דוקא
##ורש
##לח
יהיה
דף
וכתב
לענין
##ניו
לעיל
כלומר
##ירא
##ער
נש
ופ
לס
שיי
##תן
##רק
ועיין
ולה
חל
הט
##קא
יהודה
אחרי
ליש
לפני
##ורא
##דרך
לאחר
יח
שהיא
איש
האי
##ורות
דרך
##דק
כבר
ד'
שפיר
האדם
שבו
עשה
טו
##פא
##ודע
לנ
##תני
##מיד
",
מז
שח
עב
כתיב
##ורים
ורב
שאם
##מון
תו
כגון
ביום
##חא
להיות
##יים
##קר
ג'
##ודאי
ברא
##סה
##דות
##ונה
בצ
נו
חס
הן
##ותן
נפ
הדין
##רון
##כיר
לצ
ולכן
היתה
##טמא
##גה
##שאר
##טב
דפ
פיר
יצ
אנ
הכא
##שובה
שיע
זמן
דכתיב
שייך
נאמר
ממש
##קרא
יב
אתה
דח
##ינם
מצוה
##ידו
##שיב
שכל
קרא
הדבר
ולפי
##קדש
דברים
מעשה
העולם
##שרה
ואף
צרי
לנו
##שית
##רות
פע
קט
אינה
הי'
##בח
וזהו
הנ"ל
##כאן
הפס
הארץ
בשבת
ר"ל
לזה
למעלה
##ינים
##יתן
התם
##תח
##זל
##הו
##מוך
##ורת
ובא
ספק
ואינו
##יך
##גע
##טת
אותה
##זכר
שלי
כח
נקרא
##נאי
##ירושלמי
הקב
ואח
##למוד
ודו
תש
יצא
לעולם
במה
במש
שג
גב
ראוי
עדי
##בין
##ולין
דכל
קאמר
##ובה
##מיה
דאם
אותם
אד
סימן
##ורך
##עיל
##יתו
שנים
##לוי
שמו
##יבא
חטא
אמרינן
פטור
ידו
##ידוש
קדוש
קשה
כשה
מהם
להק
##רש
##ברו
נה
כמה
##צמו
##מז
ענין
נמצא
התוס'
##קין
##פט
##בירו
דהיינו
חזק
שנת
אס
##חמ
וכמו
##רת
##וג
מזה
וז"ל
ואע
הכתוב
שום
הקב"ה
מצות
##פרי
עמו
עליהם
אבר
בלי
בט
בשב
##ני'
מ"ש
מצד
##שונה
כאשר
יעקב
חלק
##לין
טה
יא
##ורייתא
##שב"א
##פים
##רוך
ידע
תי
והיינו
טעם
אנו
##ניא
##כיל
אע"פ
ס"ל
##טין
##נאה
יר
##זי
##ניח
הרא"ש
##צוה
השם
תה
זאת
שרי
##רקע
##רבה
כתוב
##מך
##רוש
שנה
ביה
##רן
##ובן
יתברך
דכיון
אשה
איכא
יוח
משא
פרק
היום
##לכות
##בן
חכמים
שיהיה
##רומה
שבא
ד"ה
עיין
כמ
בפרק
##ידי
פירוש
ראיה
שהיו
##בות
הביא
והר
##שיו
הראשון
המת
שכן
ואפילו
##סק
למימר
##ירי
עיקר
##ונ
ואת
##פין
יוסף
##רבנן
לן
##דרש
בחינת
גר
כשר
לז
כול
נע
שר
בדבר
הפר
במע
מדברי
כדא
##יתר
בשר
##זיר
מחמת
שמעון
הלכה
תוס
##יהן
כנ"ל
בשעת
דמש
הגד
דס"ל
טעמא
##דבר
##רבן
שתי
##דין
יק
##סו
סוף
##יבה
##"צ
אוכל
ויה
אמנם
נפש
##כור
אלי
הבית
##עזר
##מם
יוחנן
##יוצא
##עין
וכ"כ
תר
##יאמר
##דיק
##טול
##יירי
##ז"ל
עבד
דהוי
שאמרו
ולפ
רש
##שוט
עדים
##יבור
רוב
תע
היכא
##חילה
הבא
יוצא
מיל
דבריו
##נהג
ימים
##ודש
קד
י"ל
מבואר
הרבה
חול
##ישראל
##ותה
##קד
אור
מהני
##גיע
והיה
כלום
##ידה
יודע
ונראה
לפרש
##חין
אומרים
בהן
עומד
וכיון
גו
בעי
גופ
הני
לדעת
##מץ
##עד
לכך
הול
לכן
אצל
מקו
##כלו
ביא
##סים
##רית
ומו
##נינו
אר
נד
##מל
תחת
##חיל
##אל
עושה
והרי
בפני
##כתא
##מנו
השו
..
שפ
##טים
##חם
כלי
בנו
ארב
לקמן
ואח"כ
##בים
פ'
##צים
##דיא
##קן
מים
יוסי
##כילה
##צריך
בבית
##מב"ן
##עבד
ההוא
או'
דרבנן
##פלה
ומת
##"ף
הלא
בתוך
כס
ראשון
והש
פסול
חד
בכלל
באו
בשו
רוצה
##מצ
##דשים
וכי
שזה
##זור
נג
ורא
בידו
ולכך
אית
פלו
עולם
##דושה
##ענין
אברהם
##שבת
באמת
##פרים
תא
הדברים
##שיא
עשו
##כהן
##לב
בדברי
שית
##מנה
דד
נעשה
קוש
ובזה
מצא
כבוד
##דת
קא
טמא
אמת
פלי
לשו
יאמר
הבעל
משא"כ
ע"ב
##כנס
כנגד
נתן
עלי
קאי
##"ך
##פך
קו
שמת
בשביל
בגמרא
כפי
וכמ"ש
וכבר
דמה
אחרים
##קש
##דע
ואחר
##יוב
##לכה
##חוץ
החי
##מח
##צד
בתורה
בפ'
##רבי
##ושע
רע
חש
רבא
לשם
גי
לגמרי
##ב"ד
##צון
שאר
חוץ
סבר
ומי
השני
הואיל
עשר
##כאורה
##לום
דם
##מילא
האו
פסק
דמת
##שיטא
##של
##רוח
אחרת
צד
##ניהם
ביו
המח
##יף
מיירי
##קח
##ורין
ליכא
##ולת
בפס
המלך
פירש
ובה
##טות
##שם
##ותיו
##והו
##עלה
אע"ג
##כו"ם
קרי
קיי
##רג
רוח
##יעה
עי
ונת
##בלי
איך
##יקרא
דאיכא
##ותם
כב
##ריה
##ינהו
ומ"ש
##מרו
יצחק
##שבע
##חלת
##ריב
דאף
##יעית
##תבאר
##חוק
גז
מינ
שטר
מלך
בעלמא
כתבו
##צ"ל
דיש
##טן
עיר
חוב
##חתו
ע"א
בענין
##ולים
מאד
גט
##כתב
והיא
יס
דיל
ע"ז
דמו
##ותא
##ניה
והם
דוד
נאמן
במס
כ'
באי
##כיח
שעל
אביו
בשל
##מאן
בלשון
ואז
לל
##כון
אלהים
מעל
רבנן
##ריש
סתם
תמיד
##נח
כות
קי
והמ
##טרי
שכבר
##כרו
לכת
המז
להוציא
##סא
לרא
דאינו
שמואל
גדולה
##קשה
##כתי
שלה
רשות
יל
שוב
אפ
##פסק
הרשב"א
##ופן
##מתו
##וסקים
##קל
##מרי'
הגא
ברוך
ארץ
משנה
עוב
##פרע
וית
בתו
שאני
המע
##פלל
##ברכה
דגם
וכא
נגד
קצת
ואפי'
##ילך
שהא
לישראל
מיו
##זרה
##חיטה
דאמרינן
##כבים
תשובה
הכו
בלבד
שיר
##ועל
כהן
ואל
האשה
##תוספות
עדיין
טר
ממון
להש
פני
##גר
מוכח
##מורה
אח"כ
##עם
##כרי
רבים
##גב
נותן
שבועה
שיו
עלה
##יח
עתה
חבירו
חיים
דיד
גמור
##שונים
##חזק
ז'
דאורייתא
ובין
##ניות
העל
בסי
בהמה
ימי
ויע
א"ל
לאכול
הקדוש
פעמים
##שיר
##ונת
להע
לית
ער
מביא
דלי
היכי
##ניתין
מחו
ב"ד
##מואל
והנ
יין
בעולם
שבע
פירות
##לן
להא
הטעם
בסוף
שמים
זכר
##ברת
ריש
##פתא
עולה
ע"פ
וע"כ
כפ
ממה
והת
##ולד
בטל
##כמה
##חזיר
##ישב
החו
המים
ראש
##קבל
ושם
וכד
##תובה
עמה
שכר
חוזר
נדר
בזמן
##פני
אינם
בסי'
##צרים
שהת
לבד
ובמ
בארץ
ברשות
מט
##הל
מוכר
##גת
ברכה
לדבר
משל
העיר
##כוין
טומאה
נס
חזקה
שד
לדברי
קול
##עתו
דהוא
ויאמר
##פ"י
ימ
בדרך
שניהם
משת
ענ
מודה
מהר
דקאמר
שלשה
קנה
בעצמו
##ען
##צאת
##דון
תנא
לחזור
##ינוי
במי
תל
עק
לחלק
##קון
אשתו
##שבו
מנה
תב
אמאי
קב
מידי
מצרים
##יניהם
לי'
במו
רבה
רג
הנו
##ורו
להביא
הגדול
מכאן
האלה
איתא
##תים
זהו
נוה
ליתן
חדש
##שין
##שתא
דאפילו
##רוע
אליו
##היא
ויו
שנו
בירושלמי
האב
##יי"ש
מסת
והע
מזו
צר
##ידושין
מיתה
שהביא
הרמב"ן
לפניו
ואומר
ר"י
תפי
ראובן
##לוקח
פת
למש
קל
שוה
##דכי
תוס'
השי
מדרבנן
יהושע
##פיק
##גם
מתוך
המא
##ריות
בתר
ולי
עשרה
יעו
רצה
השל
##חט
לגבי
שאינה
ירוש
לכם
חשיב
##גין
כולם
הרע
קטן
כשא
##ביר
##וקי
שיהא
##דיקים
איזה
בדי
חוש
המר
מעשר
עוש
משו
עצמה
יפה
ואע"ג
##כמים
מרו
קרוב
במשנה
יהא
בגמ'
בעינן
למד
אותן
העו
ראה
חייש
נב
עני
##פור
שעה
ואחד
##משך
רח
לכתוב
טפי
##מבואר
דעתו
נשא
ובר
##ילות
ומ"מ
מטעם
האח
אתי
##מוה
בספר
##לע
פשוט
בדין
הטור
##ירושו
שיעור
##מית
ערב
רצו
##קט
והרא
ופיר
##ירת
כאלו
##יעור
בד"ה
מפרש
יעו"ש
ואפשר
##נע
שהו
##גא
##מנים
והו
##זיק
זרע
מקבל
תרומה
במקו
ולזה
...
קנין
הגוף
ומע
ושל
דזה
בחי
אמו
פנים
עיי"ש
נקט
מצי
שרא
שמש
##ותינו
אינ
##גים
##קיים
##יעו
לט
מית
##דיין
##מ"א
פשיטא
##פץ
##אילו
פחות
המשנה
דהוה
אשת
דבע
פה
מלכות
דעל
לבית
יראה
כ"כ
ולע
קרבן
משם
שצריך
ופר
שכתוב
##שע
##חש
במת
הר"ן
מהן
##לוקת
ועד
לקבל
מהא
##טלטל
תחלה
א"א
ואני
העם
עובר
מוציא
שגם
עמ
וצריך
להר
יעשה
ממנה
דר'
##כני
מוד
בעת
ממו
מלאכה
יהיו
ולפיכך
##טרא
##תוספתא
##צם
כסף
קמא
סב
##יעי
##רום
##שבה
כ"א
דינא
מאיר
סע
מיהו
בכך
לאדם
בודאי
##טומאה
תנאי
כוכבים
ירא
##קת
##ורר
שתה
ונמצא
##זית
נ"ל
כמש
##בילה
ניחא
שהן
ובת
##בודת
עול
דהתם
דומה
##ופו
למטה
עת
מיני
יוש
ותו
ידוע
הענין
##ליח
שמה
תרי
##כס
ראו
שלום
דאית
ליד
קשיא
ובס
נר
דדו
##ברר
##גלה
ובש
בהו
מצו
ראשונה
##עיף
קמ
הקדש
##חמיר
אליעזר
ודו"ק
דמשמע
ויר
פליגי
פל
##בוע
הראב"ד
כולה
ו'
##ברה
##ותי
##ידוע
שליח
##יניו
כדברי
ולד
מאחר
תרו
##וסיף
טפ
וי"ל
##בית
ובע
חטאת
דליכא
אמות
##דל
##בול
הוד
קצ
דאפי'
השב
ישמע
##שיטת
תח
שס
השבת
##ואין
א"ר
חר
##ל'
##רבו
אלמא
##ורע
במק
##דרין
כר'
עדות
ספר
דבא
הלב
לפיכך
אבי
המה
ויק
##נב
##טעמא
שהע
פרי
##ירין
חצי
##מיא
מיניה
הך
קרקע
הרו
תהיה
איל
##לל
מעות
כאילו
נכנס
באה
עז
פלוני
##פן
##צרך
מעט
בפירוש
ונו
דהו
איירי
יוד
שלש
פסוק
ההיא
בעלה
חדא
לה'
מילתא
##נך
חלו
מכר
ה"ה
בהא
מהו
##ישי
הרי"ף
##זקת
##מחה
##רבא
ולב
הזאת
הללו
דקתני
יחד
להתיר
שדה
מדא
##כה"ג
דמע
ואמרו
יג
מאן
צריכין
לצורך
מחי
מקרא
##ודות
זב
##ום
לבעל
מכח
השטר
פתח
השמים
כדאיתא
וט
היתר
חסר
זכות
##ידים
אמרה
ממע
תת
דז
סת
טהור
אמה
##וסק
מתנה
הכר
המצוה
בהדיא
ב"י
##כתוב
כע
##נג
והק
חלי
נוטל
גור
וחו
הבה
דלאו
נצ
ברור
ור'
מוק
##בודה
##שמי
חנ
כיצד
ס"ק
אהרן
##פקא
מני
הראשונים
מפר
חכם
מעלה
באופן
הטוב
מתני'
והביא
ומח
אלעזר
מדבר
ח'
דאל
דהכא
מצינו
##צית
י"ב
מינה
דא"כ
##סתם
כמבואר
##רונים
##יבת
מוש
##ותיה
נט
ומר
יוכל
הגט
וכך
לוי
הדר
ל'
לברך
יפ
קתני
בברי
ומיהו
עכ"פ
פרו
##ונים
ממילא
דדוקא
ראיתי
בעלי
ויד
מטמא
פסח
שיהיו
##נ"ד
בשטר
ולפ"ז
צריכה
תאמר
##רוג
לכאורה
רבו
##מצע
תלמוד
##נהדרין
הברי
המצות
אליבא
לאש
נימא
וכת
צו
##כהנים
ובכל
נמ
שיצא
בלילה
קדש
שיב
ובל
שהק
שמי
קיים
שור
חיישינן
יבא
מפי
##בק
צ"ל
גא
##דוק
קבל
##נתו
בשאר
ומא
##צט
למו
עש
שעשה
המקדש
נשים
##כלית
מקרי
##פסיק
לקו
##בועה
##זכיר
ואלו
שאומר
באר
ואע"פ
והכי
באותו
סובר
האמת
##מעלה
לידי
כולו
המקום
לבו
##ופה
אתם
לשלם
##נש
תוך
##וגיא
##חרי
מור
דהרי
להקל
בסמוך
ולמה
אסורה
ע"ה
לקיים
##ונתו
שלמה
היל
##רבנות
##שובת
##חנו
##זהר
לחו
מלשון
להי
ולו
פעם
בעיני
יור
במח
חמ
חז"ל
לפר
בנים
סמ
הנאה
מתו
##צל
שהיתה
רמז
##מוע
חלב
א"צ
ע"ג
##חינת
בלב
קר
שלם
תלוי
מנין
הונא
אדו
##שרים
חז
כתובה
הפק
לכתחלה
מורה
שהי'
דודאי
##פע
מפורש
עבודה
##כלה
בשני
צדיק
ויהי
פו
##לאה
תעשה
לשא
נכון
תנ
##ינין
בעיר
לעצמו
##ובא
ביש
י"א
שיק
##ילת
##לתא
ויב
בתשובה
##חמנא
##לאים
מתי
דאסור
כלים
מדת
##ינות
וכש
דאת
##בש
השנה
אכל
עבר
מרא
##חזיק
נות
לחוש
שהמ
לחוד
כדין
##מרים
ועו
השתא
היטב
מדר
##סין
מהי
ארבע
ומשום
ית'
למ"ד
##גתא
ומס
##ירים
יהוה
חסד
אבא
לשונו
האיש
##מותו
דאע
בס"ד
והי
ועי'
תפל
הזמן
##קנה
##טלו
##מנין
כתבתי
##וכל
לצאת
בתוס'
להדיא
לארץ
אביי
מועיל
הש"ס
והיו
לטע
##דרי
##גיד
דרבי
##גות
ברכת
הראשונה
שט
אוסר
##הוא
שכתבתי
##מתי
##כוון
הנש
##דרים
בשעה
להלן
י'
חיוב
##דמה
הלי
לר'
התוספות
חילוק
##קרי
הפוסקים
שהש
אותיות
##זרת
הקשה
ליישב
##מאת
אשי
רואה
האיסור
וק"ל
מחייב
סגי
##סד
להחמיר
לחם
ט'
חמץ
שאף
חתי
##סתר
אא
דלית
##דרה
ר"ת
הלו
פריך
דיו
לאי
הכהן
##"ץ
מאה
צי
תלמי
חשוב
וה"ה
בימי
##י"ל
בסימן
והב
הולך
##כשיו
הור
##סיים
##קות
עכשיו
בכו
##לקות
יחיד
וז"ש
הו"ל
לתת
##כילת
והוי
ביניהם
##פון
דתנן
##חיד
שז
מקדש
יהי'
שאלה
מברך
בגד
##באר
שמן
וכיוצא
וכ"ש
בחו
דמים
##ובין
דכתב
##ילין
שחיטה
##כנו
תני
##יאה
שער
אחיו
יי
הדם
רי
כפר
##צרי
עץ
כזה
אכילה
##טהר
דמיירי
לאב
שכתבו
צורך
מיוחד
##סוף
##חן
ע"ד
הנפש
נחשב
אינן
ונא
באיסור
התו
סוד
יתן
##וכה
חב
##גג
##צח
ובפר
##שתה
ברכות
מלח
ובח
וצ"ע
דחי
הוו
##נסת
אצלו
עקיבא
ושב
בתרא
ולק
נז
##שו'
דלמא
לתוך
טובה
ומד
המי
משפט
##עיא
##ליק
##שיט
ת"ל
##גול
שבעה
##ז'
ספ
אמור
עכו"ם
##דומה
הנזכר
הפסח
##גילה
ובאמת
משלם
וראה
סמוך
ישמעאל
להשת
##חזור
הדעת
##קור
דילמא
כצ"ל
##מינו
##סיף
##מנם
להד
##ריס
נחמן
נינהו
##ידך
והלא
עביד
##פינן
מאמר
ש"מ
הלוה
והח
שעת
כרב
נוס
להן
דבה
##חלקו
הזכיר
##בואר
אג
למקום
המוכר
למען
לפע
גבוה
פ"א
הפסוק
##כ"פ
חמש
אנשים
במים
דפלי
##זרע
ושו
חמור
בכלי
האומר
##יבות
חכמה
##ואים
דינו
בעבור
ברייתא
##ריפה
אחריו
הירושלמי
שעו
שיכול
הים
פרע
הנא
וכנ
דבש
תפ
האור
לבא
##נהו
האם
מצאתי
המלא
##וים
לפס
חשש
##פ"ה
דור
בראשית
##ערה
##מי'
שאינם
שפירש
##חית
##יט
קושיא
כדכתיב
##נק
צדק
השמש
לבן
ירו
##ודי
רחמנא
הלשון
##ודשת
##מני
ריב
##טרו
בעצ
##מונה
סברא
חולין
ביתו
ורק
ודבר
הנביא
##בעו
הגאון
##והר
##סרו
##ידין
##כתו
בס'
שאי
ס'
##נשים
##נחה
רעה
והל
מין
סעיף
בשא
מבר
שרו
יאכל
אלהי
שיאמר
ללמוד
שנתן
האר
וכתיב
##טלה
קונה
##קב"ה
##זקה
בחזקת
וא"ת
חלה
פ"ב
המזבח
שאל
שבה
נשבע
מדין
האמור
##ובד
##ואו
רגל
ביב
ומשמע
ובג
לבטל
זכה
##עלת
פש
פק
##יאר
רשע
##כחת
מקומות
דכי
גובה
##מנות
לחי
מעו
היר
קדושה
חזר
נשאר
##קנו
כ"ש
אתא
##כף
שומע
בחי'
##רעא
##פתח
##פלו
##מדו
מנהג
הבשר
הלכך
מכלל
##נתנו
מגו
##כנה
##צטריך
ביותר
לאסור
נפשו
ה"נ
דהאי
השא
##יקרי
והרא"ש
##מלא
תימא
קני
בפסוק
והס
ראי
##ביד
##רמב"ם
##מנא
בטע
##ילים
ואילו
גרס
מדה
הרבים
##זא
##צאה
המס
מצטר
גוי
בישראל
כשהוא
גמר
##חום
גל
מדו
##ילי
תנו
קטנה
##יקא
##תר
בכור
כוונת
איני
נזיר
המעשה
ושא
עמד
השכל
חשב
הצד
הגר
עושין
במר
וממילא
##שמים
קרו
##תיך
קורא
ב"ה
וקשה
ועתה
לעת
הקו
שאנו
מספר
שות
יו"ד
##ברהם
נ"ב
השכ
כדרך
ארי
עלמא
##כלת
עין
לבני
##סייע
לכהן
ביר
מלוה
כעין
האל
מיה
להבין
עדיף
##סן
שיד
##יעות
ממקום
כרבי
משי
##ולות
נזק
י"ג
##גדל
והשתא
אפ"ה
##יבם
וני
##ולך
טמאה
##פוס
דקרא
אונס
##יבים
ומק
רבותינו
קדשים
תורת
פירושו
סק
##טאת
נשת
אתו
##פשט
##פ'
שליש
##תום
בבה
נברא
שכ'
##סות
עקר
העליו
עמהם
##ילה
##נוי
מקודשת
בידי
ואה
##קדק
##לוני
ודברי
קנס
לכו
שלשים
לחבירו
בתורת
י"ד
השי"ת
מ"א
דלה
העדים
##מול
ארבעה
##נ'
למת
מוע
ומכל
##גלים
אבינו
ה"ל
בגי
דהכי
אבות
ויל
אנכי
ראשו
גזל
עליהן
מחלוקת
שלהם
##תיק
במסכת
עור
דקיי
קמ"ל
נפל
##בדו
הימים
לצד
באומר
גופא
דאע"ג
דצריך
בקו
##רונה
דשם
למר
ניכר
##פוך
מום
ומאי
וע"ז
היין
ר"מ
##ירץ
זהב
פרעה
דמס
דבעי
##רוה
שומר
ובד
הטבע
וכאן
##פילה
תמוה
תניא
סדר
וע'
אמרי'
ידיו
בעד
##צור
וזו
בפי'
##ודיע
בבר
בהגה
פוס
הבר
##ודים
אכן
זי
ימצא
##פוקי
מחשב
המלוה
דבי
מקצת
תד
הגמרא
החיים
ופי'
הלוקח
הדרך
קש
הנז'
מעיקרא
##ופין
באמצע
##מיו
תמה
ואיך
ח"ו
קדושין
מערב
היש
הבן
רשאי
##ילן
האחד
דאז
משני
##עתה
##צטר
##כסי
מלמד
האש
חיל
דבריהם
ונש
לדיד
גמורה
הוציא
מועד
מאוד
##כנ
שמות
ולמ
צריכים
כהנים
שלח
מילי
תול
בראש
##מאמר
ויצא
לוקה
דבעינן
גוף
ורבי
הוצרך
##פיקא
ונתן
##עלות
חיי
##גום
##טלטלין
תלו
עלינו
##סם
להחזיר
מזבח
לבדו
צא
קדושת
יז
##נתן
והג
##ואות
איסורא
##כסים
ולכאורה
רצון
##ולו
י"ט
##יאל
השדה
ללמד
##מעון
##ולב
דשא
הש"ך
ברית
נזכר
ואסור
לאמר
שאסור
כלם
##ציל
ביאר
דקא
ירושלים
במדרש
כרת
ר"ח
זכ
הקדושה
ארו
להס
עבודת
בריש
אנשי
לקנות
והכא
והאי
דפס
התחתו
כשרה
והד
מציא
חפץ
עצמם
מנו
בפ"ק
הרוח
חזקת
לעמוד
בער
##פרו
הכות
המק
ומשני
עמי
תנן
##עלם
קידושין
קיום
ואולי
אמן
ר"א
דהנה
השר
לישנא
שיהי'
כלה
מותרת
##פריש
נוש
הקד
אמרי
טובא
מדאורייתא
ס"ד
כדאמרינן
לראות
לשיטת
בזו
שתים
ואינה
ע"מ
לסמוך
א"י
מצוי
##טב"א
לתו
איהו
וצ"ל
דאפשר
הייתי
וחד
יומא
הבהמה
תפילין
כולן
צוה
בניו
##לף
ומן
יקרא
##תבו
##ליף
חצ
עובד
בבחינת
כדעת
##מרה
שינוי
##עלים
יכולין
##נון
נודע
דתניא
לשל
##פרשים
בעו
לאח
דינ
וכאשר
שבח
מרובה
אמרת
##כונה
##ראוי
##חזי
שמח
##תבטל
עבירה
##פסיד
ורו
##יבו
בש"ס
##יוט
תפלה
צדקה
המעות
##כרח
נביא
ודוקא
##צע
למח
ועשה
ושוב
דני
יסוד
##כש
וכה
חולק
בדיעבד
הראוי
פליג
הלל
פ"ג
לבאר
והטעם
מתע
##חוט
עמך
##ישנא
כזית
##מיר
##שרות
משפ
דאל"כ
פניו
ברב
קמי
הגיע
נדה
##בורה
שאתה
מ"ט
יכולים
חפ
לתקן
##צין
שליחות
##לוח
##מעט
לפנינו
והה
##סיפא
שחייב
מהרי
דלעיל
ומזה
ע'
א"נ
צדיקים
מעולם
לעו
##פיד
למשה
שלנו
מרן
מפק
לעני
##כרת
רז"ל
בתי
ככל
המד
חדשים
##מק
בכה"ג
##מ"ג
ושאר
העליון
אלף
בכתוב
הערה
אלקים
##עיר
##למד
היאך
בברייתא
גדולים
##מוז
באחד
שבש
##חרים
אולם
מה'
סוכה
בשום
שבועת
##ארת
ט"ו
תור
##מנת
##פנים
הלכתא
פ"ק
והרמב"ם
##ודא
בהר
בהנאה
דקי"ל
חברו
לשב
בנות
מצה
למכור
גופו
עיני
ונ"ל
הברכה
נוהג
##לון
##נהי
טב
##חס
##שיג
##תבע
##ירושלים
##כ'
רפ
ואתה
עצמן
לרבי
##זרח
בלתי
החכמה
##כירו
אולי
עסק
הלכות
חצר
אזל
ה"א
##דושין
בתוספתא
ודוק
##נסה
הקרקע
דמאי
הב"י
רשב
באותה
הנקרא
פרשת
וע"ש
דומיא
לילה
שבכל
##בדל
תשמי
מרי
אעפ"י
גוו
הכלי
נמשך
נפשות
בדברים
ואפ"ה
דרבא
ט"ז
מאו
הסו
טפחים
דרי
גיר
##סתפק
דידן
##סתמא
זכרו
##יקה
צ"ע
שול
ואש
לרבות
פסולה
הרג
פועל
##סוד
עירוב
במדבר
ואמנם
##מעו
מנת
יתר
הביאו
המקו
להקשות
הצדיק
##יתם
לשמה
קודש
במקומו
מישראל
##פול
##ענו
לאה
##מינן
##מ"ה
והן
אביה
דעלמא
לרבנן
##פסל
ומותר
בכח
יושב
והכל
נרא
אחי
מיב
##פורים
איפ
גמרא
וחי
לדון
עליך
שנעשה
כשנ
שקר
דכו
##כינן
י"ח
##צוות
כ"ז
מלתא
##ריו
##רס
ואב
שיח
ר"ש
שנמצא
##לחמה
להורות
דפר
בהיות
##ודר
המחבר
תצא
##נור
יצאו
##נד
שהכל
ושמא
מבית
מ'
דהי
יתכן
##שן
##פורש
מכו
מעכב
וכמה
נכתב
וירא
פירשו
דחייב
שאינן
ורבינו
פתו
כשם
##מעת
שאול
שדר
שנקרא
מתחלה
##שתן
##זב
ד"א
דר"י
מוצא
חיה
טובים
היוצא
לפניך
לוקח
ליק
מתניתין
לברכה
מות
לכתחילה
דרש
עצם
ראי'
באדם
ובני
שביעית
שהקשה
בצד
מלו
פרט
ליתא
כוונתו
פ"ד
הכלל
ס"ס
שביאר
##רבע
מיעו
##ציאות
ליו
אימא
הבעלים
ברוב
הילכך
הרח
בהלכות
שהב
כיוצא
ידעתי
ולומר
##מס
הבל
מיקרי
לאחרים
ואילך
##זים
##נחות
התב
קס
##ויי
הלילה
ומפני
##גון
דמותר
וכתבו
כתובתה
באח
שמחה
ודע
מבטל
בור
עי'
כדאמר
ואיכא
##קע
ששת
##ליך
בדר
למאן
##כרים
##יעת
ביו"ט
לאיש
קי"ל
בנה
##ברות
##מ"ע
במ"ש
חלקו
דמתני'
דווקא
ימות
ויהיה
למפרע
קדיש
בשי
##כניס
טל
ששם
מזונות
##ערב
גמל
אבן
לקח
ולש
##יימו
האחרונים
קרב
מוכרח
פלוגתא
טריפה
תקנה
בפי
##טרת
כוס
הלך
בתחלה
##דן
ר"ה
דאמרי
##תך
##מתא
עשי
קדם
הש"י
שאז
##חוד
ומש"ה
מרב
הקודש
א"ש
##כירה
הכוונה
בערב
ומצא
שיטת
דיני
בכמה
גרע
מרע
התנאי
##עור
ששה
##צונו
אתכם
כ"ה
מאות
טומאת
פפא
ניתן
הטומאה
ופירש
הגה
וחייב
##רינן
וכ'
חובה
נדרים
למאי
להניח
היד
דבאמת
##וח
##מיך
הכהנים
בהש
קיימא
לבר
חייא
רצ
ושלא
##טיב
באש
תמצא
השמי
טור
שלפ
שהח
##מתין
בספרי
אבד
חסדא
יאמרו
חנינא
מייתי
##צב
פ"ה
וכדא
שכתבנו
##תני'
צור
סה
ור"ל
כחו
נתנו
##ננו
זרי
קוד
##יניה
עפ"י
##מרת
שיא
ביאה
המג
מקודם
ברו
ובב
מלת
פרה
מעין
##רא"ש
במז
במעשה
הכנסת
הספק
בכול
הותר
דמד
קבוע
ויקרא
ביאור
ולאו
בבל
יונה
ומכ
טהורה
דאיתא
ביטול
##עודה
##זהרה
נתבאר
##דום
גזירה
אנא
דעיקר
רצונו
##ושים
להוסיף
לשת
חזי
זרה
המדרש
##לקו
מתה
ויום
ל"ש
לזכות
##בלה
שזהו
יכולה
בחוץ
מהלכות
עמ'
לדקדק
זק
##פטר
##כחה
איב
גמ'
טעות
הפירות
אדעת
מלה
אטו
זר
אלהיך
טפח
התירו
לאפוקי
קנ
שחי
##לאות
כק
הגאונים
לעצ
##ובר
לכ"ע
והבן
נית
המל
הגל
מתחיל
##חלק
בכאן
להתפלל
דלר
גבור
בפסח
להרב
דרו
בפניו
הערב
הר"ב
יורש
##מט
שנשא
גזרו
שנית
חג
בשדה
בסוד
פירש"י
דמשום
חנו
בה'
כוותיה
##ריא
##פיע
##רין
למלך
ועי
בדיקה
##גלות
ובי
ישא
שאפשר
כאחד
מאת
##ריתות
בחצר
##לקמן
גברא
לשני
##נשא
בריה
נהגו
לבי
##דעת
##זרו
דפליגי
עפר
פט
ליום
יו"ט
טוען
בעין
הגמ'
ופס
ורבנן
הקט
מכה
בפנים
בך
שבין
מטה
נכס
##שוי
##סוק
לחייב
מסו
כבודו
לאשה
ולענין
דאב
מנא
לשבת
אכילת
כ"ד
מידו
השכינה
חמשה
באין
בעדים
נושא
המקבל
בגוף
##כבד
בהת
פן
חסרון
בלאו
לר"י
ויא
והרב
ה"ז
##דייק
רישא
סתמא
וכ"ה
בדעת
##שיטות
מ"ה
##יעקב
##תחיל
עון
ק'
ליב
בהג
קכ
##דיון
##יוחד
סוג
##זמן
אלהינו
נאסר
##כרה
זצ"ל
מודים
שנראה
בנין
לבוא
שתהיה
##פשו
סבירא
והוה
המן
מאל
מדעת
וראיתי
##סתלק
עבדי
##סרה
במצות
##צץ
##קומו
לתרץ
##בלת
אוה
##כשיר
##נוס
תרתי
##ואלים
ברישא
שנש
כשב
##טח
##ושיא
מ"ד
בלבו
בפרשת
##שיל
כה"ג
##יבל
שתהא
בב"ד
בבא
חוששין
יודעים
תיק
##פרא
##מ"ק
הרש
##פח
שלמים
לבב
לאיסור
ידעו
##ליצה
,.
מהל'
נפקא
פיו
נכרי
חייבין
כדר
תיקון
וליכא
##ושי
##רישה
לקרות
אכתי
שאלו
לחומרא
##ואב
##קוט
מדכתיב
אנן
ותי
והשיב
ובפרט
הנמצא
##כחן
הויא
כמאן
##מטה
דבכל
##תומים
אזי
שבר
בטו
##ופות
הר"מ
לילך
בהי
להודיע
במד
ומצ
אמרתי
##ושין
התנא
ליטול
##ולק
האות
##שלו
##כבה
מחלק
אא"כ
באב
ידים
גרי
דיכול
##לאי
חק
לאחד
במס'
ושמואל
לכבוד
ביחד
ביני
##רי'
לדחות
וחזר
חת
##פיל
תהא
##צרות
העד
אנחנו
ובית
שאפילו
הפני
מאכל
תקנו
עבור
ודלא
החמה
##בירה
##בלים
יביא
ממזר
דרכו
##סימן
##חיק
והדר
מיהא
וי"א
הט"ז
רחוק
מבע
להשיב
כבי
ממת
##מדה
##ליחות
המפרשים
##מש"כ
נכסים
##ציאה
בכדי
בתרומה
נמש
בינו
מנחה
##בחים
הבאה
עיניו
##ולתו
באים
מלאכת
איצטריך
לעתיד
מ"ב
המנהג
עבוד
##פסד
לאוק
המשכן
"‬
תלמיד
כדת
ילפינן
אלפים
נכסי
##חתם
ב"ש
##וייב
שמר
##קרב
דנקט
משכחת
##יאור
ירצה
קלי
דריש
בפ"ע
בבת
טבע
שעבוד
וה'
דלת
בקרקע
לגבות
פור
להתע
בגט
טרפה
פ"ו
דשאני
אהל
במאי
דקאי
##ראי
מהרש
דאתי
החטא
דשמא
בבי
באור
בכי
נ"מ
לשאול
משאר
מקד
וטע
##ורשת
##ובים
ליר
##זות
##שיות
##חך
##ינוק
##בוי
טענה
העי
##מ"ל
##מירה
##ייהו
שחל
חשו
לבה
תפס
אגב
דוחה
גופיה
ולר
למעשה
ובנ
מבני
שכך
רבות
כותבין
מה"ת
עומדת
הב"ח
##פילין
הפועל
במצרים
העול
מחזיר
מניח
השאלה
חליצה
השיב
להכי
ק"ו
בשתי
צבור
##פקיד
##נוה
לאור
אמי
להאריך
שיעשה
##ויה
אילו
שנע
##כיו
וכנ"ל
הטע
בטלה
כשי
נפק
בעיניו
הער
הצדיקים
##לאו
באות
שניה
##ניין
הגז
העומד
##פירות
ויכול
ובק
קושית
דבת
##ורשים
אזלינן
במתנה
שבעת
מספק
שהס
וגד
עשרים
שצ
דאיהו
מרדכי
הספר
אלקי
למחר
האלהים
י"ז
##זין
מוציאין
רמ"א
##מעינן
ונשא
##מכר
טענת
מוסיף
ראשי
חלוק
דעתי
הדי
צבא
להשתמש
לאכילה
ומעתה
הנשים
בהאי
##מועינן
סג
השליח
ובפ
קידוש
##דדי
##וה"ז
מתיר
וא"ל
##ובע
לשנות
משב
התשובה
##חור
חבר
עוף
##וה"ק
ובו
תחילה
בשלמא
זוכה
כלאים
כ"ג
בעוד
מעתה
עושים
שנכנס
ח"א
הקטן
ומל
במלא
יע"ש
עליון
דיה
ספיקא
שואל
שראה
שמותר
מלי
באכילה
לישב
גיד
המוציא
חייבים
ויותר
דלפי
ועם
באונס
כולל
##ירוף
מוחזק
בתשו'
שעות
עמוד
לדין
שאחר
נופ
כר"י
מדבריו
##בוש
סותר
##חילת
בדו
האחר
##חי'
גמליאל
שנג
אסי
האומות
בגדים
##ענית
##לע"ד
ולהכי
ובלבד
דאיסור
בספק
הניח
##דב
המרדכי
מברכין
##כלל
##ודל
ק"ש
היות
##בריו
בקר
העיקר
בדבריו
##קדון
בעה
דשרי
קטנים
בש"ע
שהנ
##ליות
דרכי
התפלה
בתשובת
החכם
לישבע
כסא
לשאר
##פרת
לוה
##שהו
##עמים
העבד
##ירוץ
##ראות
מעצמו
דמר
"‎
לקיש
הדור
לשום
דייק
בעלים
שירצה
סאה
סיפא
מילה
הגדולה
רשעים
שפסק
גרסינן
##ברייתא
##שיך
שנא'
##שרת
##שתים
הפסק
פרשה
דנא
ישו
##דור
שופ
##רובים
שהר
ובעל
ואחת
##ידש
דשמואל
דכול
קורין
שהה
##שור
צל
##לקל
שדי
מקשה
להעיד
הנס
##ורב
העת
##טיל
בסתם
עשא
##בלו
נתחייב
וס"ל
הברייתא
##טבע
ושלום
##ודת
די"ל
ופירש"י
ותה
וכו
כז
נגע
הרוב
מקומו
אהבה
ואד
ברשותו
אצבע
ואמאי
וידוע
נתנה
דאמרי'
כענין
הכבוד
שראוי
אוכלין
זכו
הראש
שבמ
הזק
##משיך
למעו
כשאר
שיל
מלקות
ונעשה
לבל
בחול
דבמ
וחכמים
כנג
סבור
##רצה
התחיל
ואמרינן
רובא
דחו
נותנין
הכלים
בורא
שעשו
##כפר
##בואה
בי'
ממצרים
מעשיו
ואו
תכלית
מחל
דידיה
הל'
##מכתא
מתא
טבילה
התי
##תוספת
מתק
תאכל
אתיא
##ביה
גורם
ממ"ש
הקשו
מראה
נפר
החול
עבדים
##מונים
##ברין
ועדיין
האדמה
##ולל
שורש
שתו
כמי
לפנים
מיושב
##תניא
מתחת
בזכות
דמתניתין
ר"ע
ליקח
ודעת
שנינו
ושי
יצר
שבל
וקרא
גרו
בנת
נפשי
קרבנות
דלענין
וכדומה
כופין
##סורין
בתוספות
בחר
##עב
אלמנה
הבריאה
דע"כ
##ירסא
שעבר
יי'
בדיני
גדר
זקן
לזו
לימא
ממך
דגבי
העליונה
יעלה
כרבנן
ואס
דהשתא
האחרון
העדות
##פסוק
זית
סביב
ראשית
בכתב
מש"כ
ולת
הרגל
נטמא
הפת
שבאו
הזו
קור
ולית
שעדיין
##ינך
הקהל
הב'
בקי
מציאות
שבועות
אומרת
תקנת
ומפרש
בחיי
תליא
קבלה
אחא
ועבד
עצים
בהדי
באיזה
##טתו
חלות
שופר
כראוי
שפת
##ירושין
הפקר
האנשים
כשיש
דצ
ב"ח
השת
##דשה
להג
##עס
במקצת
הגוי
סמך
כפל
##למיד
העולה
נולד
שהג
##ציאת
הטה
כהונה
מדות
טהרה
למיחש
##סקנא
##רבעה
##עא
נקראת
רגלים
אחריות
##לוהו
בעצם
לבעלה
שיתבאר
בב"י
להח
##בוה
וחל
מלכי
החס
הרמ"א
ודר
אומרו
##יתומים
נטל
שעושה
מדק
##בירא
##גדים
רחמים
##פוק
שלישי
##תון
בשמים
רביעית
מוקצה
מתירין
מדוע
העבודה
המשפט
ומב
ציצית
##ולח
בשבועה
המצ
##ובי
ממי
הריטב"א
##שוטו
גוונא
ממני
##שט
לזמן
תיכף
אליהו
##פינה
הקודם
קנו
שיבא
תשמיש
יבוא
שיתן
מדלא
חיו
שפי'
להזכיר
השבועה
תג
ואולם
שנתבאר
נהי
ההי
##טריא
ומביא
בשער
כ"ב
גוים
במקדש
##ופא
אינון
הפסד
בפחות
ויח
באל
שמאי
דיב
גיטין
למדנו
ה"ג
##מעשה
לרשות
העכו"ם
##קוה
מיום
קפ
##שיה
התלמוד
לאל
כשרים
פרוטה
##נותו
לברר
דאיירי
ולשון
##לקים
סברת
ס"ת
מפרשים
בשמו
שבט
##עוט
בם
הגו
מוסר
ובודאי
לקולא
ת"ח
המלכות
מהאי
דוחק
##קיף
דשו
בהך
##עולם
##לימות
##ב"ש
והצ
ונק
ושה
ושני
תם
והביאו
ברה
מיתת
וכשה
נאמנת
קבע
במתני'
##פלת
המזון
בביתו
##ונש
וכפי
מבחוץ
##חב
##רקעות
ור"י
רבית
תחתיו
לגר
הנשמה
נזירות
ישוב
לרבינו
בתחלת
##וקר
לשמור
לפעמים
הא'
בידים
הנך
אפו
שאמרנו
ברוח
תפלת
דמילתא
לעבוד
##ורם
##משה
ישב
היחיד
לפניהם
דמ"מ
לכאן
דחייש
##נתא
##בדיל
##כימו
לטוב
הבת
##גיש
שאדם
##לוך
מלאך
שאע
שנהגו
למעוטי
יהי
מלחמה
השלישי
ירושלמי
שכינה
הלחם
##וייהו
אפרים
עס
להאי
להמ
##ניס
בשנה
דטעמא
וישראל
זוזי
הפך
##ריח
לבין
ארעא
##בריה
##מ"ד
קע
וסת
ואלה
דשי
הדא
אסורים
פוטר
##טבול
שזו
המיוחד
לצר
ירד
##שך
נוהגין
ונאמר
תדע
בשע
##נשי
ארבעים
##ופים
התא
פ"ז
שאכל
##סתכל
##תיה
אליך
מוס
הבורא
אכיל
בכסף
מתר
דט
דאמרו
ראויה
ה"ר
הולד
למז
אזיל
כמש"כ
##בהו
לפ"ז
לבע
##מ"ח
##גש
##ערות
רבן
מחזיק
נכסיו
שכיון
##משים
ישר
##יעא
##פרה
הנר
להוכיח
לקדש
##פ"כ
חודש
אחרינא
##שונות
ובכ
עמלק
דשבת
דקיי"ל
עובדא
להיפך
ותא
##כמת
הרה
בקול
והני
שלימה
ששו
##ירצו
ויבא
חרב
בלע
ים
החצר
שטע
לעבור
לשמוע
כיו
אותי
##לוש
אק
הבח
נקב
בריך
הנדר
ההלכה
##מיות
##ירתו
דפריך
הבאים
לעיר
בתים
##שבועה
בגו
האלו
בכ"מ
בנ"ד
נשמע
להציל
מכירה
פרש"י
תענית
ספרים
מש"ה
##זונות
דן
האוכל
לידו
שחו
מגיע
ויוצא
בי"ט
##מדת
במא
שמעינן
מגל
והקשה
קריאת
מינייהו
בשו"ת
שכרו
יקשה
דהיא
##וין
שמצ
עבדו
דפשיטא
דהת
מחיצה
לטעון
והי'
##לחם
ותב
לבנות
שיוכל
סיני
יוציא
בחולין
##דושת
מלכים
ואינם
ונה
סעודה
ל"א
דבק
קיי"ל
באשה
בחד
זכור
וטעמא
והכ
מעיד
סנהדרין
בהל'
טעמו
##למא
הכח
הכפורים
##רוף
##חץ
##טרה
##חשב
אליהם
חרס
##נינן
בחכמה
נבלה
פסחים
יעשו
והמש
הג'
בתוכו
מעי
ורש"י
הנותן
מרשות
ועיקר
שבעל
דבור
##שי"ת
##יקרו
דסבר
ירי
בידם
עלי'
##טילה
אסורין
דהר
דעכ"פ
##לחן
למעט
##ינינו
כרחך
קושי
ירק
ויתן
צער
ביצה
##נינים
דהך
תוספת
שבות
איננו
##יהי
##כוונה
##חורה
יהיב
מהש
איר
ברגל
שרוצה
##גן
בפה
נחש
אמינא
נתע
ויס
ואוכל
החדש
נעשית
מלמעלה
קבלת
יאוש
##מעתין
דהו"ל
##פיס
לעלות
שהי
חומר
ביבמות
הבי
##לוגתא
באלו
כידוע
ערך
נאכל
כשאין
שזכר
תשוב
באת
כפרה
ובירושלמי
ליל
##מוכח
גדולי
יצטר
לדינא
##חלתו
קרן
ר"פ
לפרו
כולי
##טף
##טלי
עתיד
##לקי
שהגיע
בסוכה
וטעם
##ניים
בפשיטות
ללכת
מיגו
בלא"ה
תימה
##שב"ג
##שבון
ופסק
זמנו
בגיטין
לערב
הוסיף
##טוען
יקח
יתבאר
##קדיש
##צתו
לדידן
דהמ
יתירה
בסוגיא
הפירוש
למלא
##בלין
##תובע
הגם
שבק
אדר
חכמי
שביארנו
ושואלים
בשבו
ומבואר
מצוות
##ותח
המשי
תס
לאוין
?.
הפרה
##וליד
שמעו
מתן
ישת
למית
דמק
מיא
מקור
כדתנן
##פיה
הקרבנות
מקח
תתן
דכבר
##פארת
הנק
##וסר
##בלע
ולמעלה
פוסל
עשוי
חיות
אדרבה
נתי
הפרשה
כלפי
הוש
לדו
ניק
אביהם
אשם
סופרים
דפסק
חמי
בתלמוד
אילן
הריני
הכת
משיח
הקי
ברש"י
זקו
כ"ח
הבנים
ונד
הוק
לעי
לאותו
שמעתי
בבהמה
במזיד
##כורות
החוב
הקוד
##ב"י
וה"נ
ההר
##פחה
התר
##ואי
סל
דבעל
לקרא
##נחת
##צחק
בע"כ
לקי
פ"ח
דבלא
##חיצה
לב"ד
שע"י
דרבינו
בהד
השור
לעבד
כמות
דנין
דלד
והיתה
##רובות
הסי
מעכשיו
לפלוני
##כהונה
ונותן
לכול
לדר
##לעיל
בינה
בידך
לדבריו
אחרונה
הדיוט
כשמ
חות
##מרם
##גיגה
##לה"ה
דרשו
שוין
נהנה
הר"ש
וקו
גזר
בטור
שאח
##רם
השלום
סכנה
לנפש
ורבא
דיבור
ונוטל
הקרבן
שלך
סהדי
צע
ושפיר
##ית'
רומז
##חובר
שוים
ישן
הדבור
שהוציא
##זן
##ריבו
רה
##נסו
ומשיבים
ונע
שכיח
ינ
המאמר
המקרא
##זילה
בריא
בג'
##סח
ההש
סמו
עונות
החסד
לתמוה
נוכל
הגוים
נחלקו
גאון
ציון
רואים
##יהנם
עונש
בפועל
דבזה
##מאל
דהיכא
אויב
שערות
ואחרי
פשע
##טהרה
רחו
איפכא
ההם
בפ"ב
יברך
הכסף
גלות
בחידוש
ודא
בגדי
קה
תשובת
חידוש
מלבד
##רער
מובן
והפ
בשוגג
חור
בא"ד
##ידנא
ונות
##חילו
בחלב
##עתי
מהמ
דתני
מסתמא
ומתוך
חרי
דפטור
##צאן
מטלטלין
כשיעור
תשלו
לולב
בגל
מענין
החכמים
##זלן
שישראל
שנפל
יראת
המטה
ולפמ"ש
נשיא
##חיה
הנפ
השות
הבריות
שינה
הלוי
אדום
קדושים
דהרמב"ם
מועט
הבד
דה"ה
##לקא
##כתה
עלייהו
##רובת
מתים
מזיק
עומדים
שנשת
ואית
מתנות
##חוש
העוף
##ורד
##חריו
##מיני
דרא
השנים
##צום
שפר
ששים
##מטריא
והר"ן
ולאחר
רבנו
ערו
נקבה
יליף
דסבירא
##עתם
טמאים
דהלכה
חמה
ל"ב
למחות
לאברהם
ונקרא
אסמכתא
ידעינן
אהדדי
##כשר
כותב
##כותל
יגיע
מכש
ערי
ימין
לידה
למא
##יקש
##יג
דמהני
וביום
##ליט
ועכשיו
כשלא
נוגע
השביעי
ל"ד
צורת
בר"ה
##עי'
לרבא
##ואת
אליה
פוסקים
התק
ומכאן
מ"ע
##גבי
נשב
ואשר
תכ
##צאי
טבל
לשתות
##ידא
שיז
חזרה
##שביל
ירמיה
שבאר
תן
##כבת
לפרוע
שחר
למנות
ממלא
##לקה
זולת
עצה
בעיא
ביין
הצבור
שלפנינו
הישראל
דאס
האסור
##ידיה
##כי'
המגיד
אחרון
ותירץ
מחשבה
דבג
ריח
וקאמר
מחויב
סברי
##נ"י
##נתה
אומד
כמותו
בב'
משלו
בהכי
מנ"ל
דאינה
סוטה
כמת
דהל
שסו
מאתים
וצרי
לשיט
כסדר
חנם
##ולדה
דוג
אלפס
ומשו
##קיע
הלואה
וחוזר
התוספתא
סר
בדק
אופן
שיס
##נתי
ס"א
הנראה
הרשע
כולהו
מעש
##שונו
ראתה
דמצ
##נטר
חלל
דאלו
אבנים
##זירת
##חיים
בגין
##גבר
שכו
בי"ד
##ויים
##ט"ז
##חלים
לרו
בטוב
מזכיר
אזהרה
מארץ
סעי'
דמא
שאלת
לחוץ
מיעוט
נ"י
ומז
והרשב"א
ל"ת
מההיא
ככר
ערוה
שצרי
מסיק
##ונו
מסייע
בליל
##שלמא
##ביו
והלכה
דורש
הברית
לשמעון
ראשונים
בדעתו
וא'
וטוב
האילן
במינו
חדשה
מוכן
מפסיק
ברח
ויראה
##מתם
הפרק
##גרש
##מעות
דמ"ש
הטמא
##מ"ז
##ריע
לחדש
תולדות
תשא
##לתו
מהר"ם
רגיל
נוק
זכא
עלו
##ידות
בסעיף
פ"ט
##ושב
מבלי
דעד
מ"ו
סומ
חורין
##בלות
שמך
תופס
מחילה
רואין
##כורים
דשב
##פקד
יען
מצר
תוק
והשני
לפסוק
חתיכה
לבוש
מסתבר
פוסק
שהקב"ה
לפטור
בסנהדרין
##כיה
הקול
בד"א
מעלת
הובא
התרומה
אשרי
מימרא
מכשיר
הצי
##צטרך
היותר
ודין
בעיקר
בכבוד
חרש
פרס
##קשו
##וה"ב
עצמות
ל"ל
##משנה
יטמא
למ"ש
המתים
##גלו
לטלטל
ששנינו
תקו
כריתות
החומר
מוקי
להרמב"ם
##כתיבה
אסר
ל"ה
##צרכו
הרואה
##לתר
שנות
##ניבה
שמביא
להעמיד
דיין
בא"י
סימנים
דברו
ששי
##רוס
##שיכה
ברם
ושמע
##ירושה
לתורה
שעיר
תוספות
דגים
דסתם
וישב
פסקו
קדשי
והולך
ברורה
בכר
לאשמועינן
סד
##ה"כ
דתי
ותש
##ריכות
כבד
לאלה
שרה
##לקט
תוכל
##מוס
לישא
למס
שטרות
השע
מהך
ק"ל
וקיי
תראה
בסו
התו'
##יתת
התיר
הברכות
##צרו
תיבת
עשיר
לגוי
ולח
##קבלו
בד'
בשוה
ושת
##מדים
נחת
כתבנו
חבור
מחבירו
תקון
דטע
סוגיא
##ובדא
במצוה
##ליג
חובו
וודאי
יעבור
דפליג
וראוי
כ"ו
##כד
מרוב
##נגד
ברצון
העור
לבדוק
כמין
הנכסים
מעצ
##חיות
מקנה
יחזיר
##מוש
##תוק
המנחה
מדעתו
הנביאים
##גלי
מהת
השער
יובן
זכרונם
ס"ג
##לש
מוכיח
בתשוב
לאשתו
דברייתא
ופשוט
בבשר
מחול
דר"א
##גתו
העמים
החיצו
שבהם
העץ
בנדון
##מלך
##חלל
החפץ
נתב
נבילה
שמונה
רחל
צמר
כנגדו
##נאו
תבא
הוס
תחו
##דעתו
עובדי
##גרת
הסדר
לרש"י
נערה
##ישית
##תיכה
דאילו
שהד
לחלו
##שב"ם
##שאה
כהנא
מבין
שמק
נפשך
דהש
מודו
##פרק
מהימן
דכתוב
גדולות
ופריך
##ניתא
ולבסוף
שבי
נוטה
חולקין
בפסחים
לדורות
אע"כ
שרב
##עיה
זא
לוקין
הינו
הממון
מעילה
חן
ל"ג
בגלות
בקרא
דעבד
חלקים
ודי
ורי
שנולד
מחוייב
##געים
האריך
לחלוק
החיוב
##פירש"י
נעשו
##צתה
בנכסי
סופר
הדחק
רעות
מסר
דבס
תמי
שאוכל
שבעים
לעכו"ם
משמש
ספרי
##פירש
שחטא
הדמים
##זהיר
משקה
##קנת
הכנה
חובת
לטמא
לקר
המנ
העולמות
שהאדם
וכגון
הימנו
חמשים
ששא
ולכל
דר"ל
וזאת
דאד
בקרב
בסדר
ששמע
אביך
דכאן
יבו
דבוק
הקל
ולהת
יחזור
וע"י
דגר
וא"צ
נאה
ומנ
הסוגיא
מחצה
מכת
##גביה
נשאת
משעת
אותך
הכשר
כתיבה
עכ"ד
אסרו
ונכנס
דכש
נקראים
יתב
##קדשה
יכ
ביומא
שוא
העושה
לבטלה
דישראל
שכי
אשכחן
ילדה
בוד
שתא
מקל
שברא
הרשעים
אדעתא
דא"א
לאלתר
החל
##ואתו
לרע
דזהו
נשמה
וכתוב
##בהמה
הרצון
שהבא
כאומר
בר'
בקש
בקד
כנודע
יקר
##משמע
תלתא
דמח
ולדעת
שיטה
בראשונה
להשלים
לתלות
במקרה
##יראו
מצטרף
קיימת
כלא
האבות
##קילה
היסת
בירוש
להשיג
ועשו
ובלא
בתרי
בכתובות
השואל
משועבד
##זרעו
ועושה
שאפי'
##נוע
שבעולם
דמייתי
כדמוכח
##יאין
כיס
ברירה
צרה
כופר
שאע"פ
ודם
מגורשת
##ינתו
בימים
בהק
מותרין
מעלתו
לאוקמי
!.
תז
##וליך
##כילתא
ואיש
##נבים
קלה
בזוה"ק
המחשבה
תיבות
חולה
המקח
##שמיש
ירושה
טי
יחוד
הבתים
חצות
עניים
שתב
##ריעה
בגדר
דמל
כדק
ממונו
תחלת
וחומר
המדבר
המציאות
להנ
שטרא
ההת
יורה
דההיא
דסובר
להלכה
כביכול
##כתבו
##פד
תלמידי
##ורק
החלב
עיון
ובמה
##צה"ר
ניש
הגדולים
דינים
לשחוט
##ציו
שחרית
##שביע
לבנו
ת"ר
דחיישינן
תלת
##פ"ז
רכ
הכ"מ
שקרא
נהרג
שא"א
וגומר
גבר
יהו
דאכתי
##חון
עשית
עברי
##חטו
נכו
לבסוף
למצ
התנה
לידע
שהאריך
מגד
המדות
ואכל
כשת
מדבריהם
##יכם
דאו
מסתברא
חוטא
מיבעיא
ונס
יוה
##שש
בשכר
שבתורה
הכול
##טוב
מתכוין
##פלג
גרם
ס"ב
חומש
איזהו
כשהיא
המנו
##וסין
מהל
##זרים
נפשיה
מחדש
##מתה
##זקין
ישלם
ורוח
הרמ"ה
##גיעה
דמיא
שאמרה
וראיה
בדף
כונת
היזק
רחב
בברכת
מכות
הגירסא
ומשם
אחיך
באורך
דה"ל
דייקא
שקנה
בפרט
ב"ב
ח"ב
תירץ
לרמוז
שמצא
הפנים
הבע
והלך
##ורף
בעדות
מוה
נתתי
מטבע
בירושלים
השניה
מבקש
מחיים
##נותן
בים
##מלית
בממון
ערלה
##זירות
וברי
כדמ
זירא
המב
האה
דיע
להור
דלעולם
הסמ"ע
הודאה
בטומאה
בפת
מצטרפין
הרעה
המותר
בצי
לשמו
יונתן
אצט
פדיון
ובז
##שוטה
בכת
י"י
דנת
##ינתה
והטור
זכי
רבי'
##גור
##חרת
בלו
כתובות
גבול
##נהוג
##תיים
##בון
כשבא
בשמן
נקי
אכ
מנחות
תלמודא
מקבלין
לביתו
מיש
נוהגים
העין
ביו"ד
##תוח
נתינה
מקיים
שוגג
ראינו
השחר
כתר
פגם
בינ
והתם
##נאת
התחתון
מהד
שעיקר
מונח
##נחנו
צאן
סמי
לפי'
אוק
ה"מ
בקדושה
ואומרים
ובגמרא
בנ"י
שהתורה
רגליו
ואנו
השיג
מתחילה
מנחת
ויקח
שאומרים
חומרא
מחוץ
כ"ט
העלה
להעלות
פתוח
גמי
הודה
להכשיר
פרטי
בהג"ה
##שבים
ידם
##יננו
רבותא
נפס
מינים
הרשות
##ליפה
קרובים
דרק
אסתר
ידה
דלקמן
אדרבא
המזיק
מ"ג
בגופו
בטעות
סכ
שמס
רוצים
קשר
הכונה
ברזל
מכיר
דהיה
משקין
ותמה
משכון
##צרה
##יס
נשר
כר"ש
הפרי
המשיח
ללב
ידיה
ולפי"ז
דינר
שקורין
##פירה
הארון
##ושת
##תבונן
##חלין
הקושיא
ובמקום
שקו
וא"א
דגרס
##ויות
גשמים
משיב
##לקת
שיודע
יתומים
זרעו
מוטל
ובאו
##פחות
בההיא
המועד
ללא
אישות
##גרשה
הכתובה
שהקשו
המילה
דחשיב
להמשיך
ליעקב
הזהב
ומכ"ש
קלא
ידך
יבמות
דעביד
בביאור
שחט
דחד
דאביי
לפסול
כשירה
יבואו
זע
##גלגל
בנדרים
השחיטה
להני
שיגיע
מהלך
ושתי
הסעודה
דלמה
מלאכות
ל"ח
היב
לפמ"ש
להב
הנבואה
אהא
במאמר
##לוס
לכהנים
בשכ
אוקי
##טורת
אבותינו
גנב
העליונים
והרמב"ן
##טלטלי
מעמיד
הבו
סבה
##זרק
ותר
##רעו
כוונה
##משו
אלק
שמירה
דהוו
##גיל
פסיק
הנד
##נחס
באשר
נגמר
חוק
א"ע
שומעין
ריע
שמעת
חלוקה
חשבון
##דיש
הבור
דאש
וינ
##גיח
מצווה
ובפרק
מדרי
תרגום
##פלים
למלוה
המות
ישבע
שקבל
רמי
לעכב
התע
אינשי
##פקר
חולי
ממעט
בהיתר
גופה
שמנה
מעוברת
אחרות
המלאכים
הר"י
##עילה
דמפרש
##חומא
ש"ך
צבאות
אחות
אהבת
באמרו
חולקים
בשנים
המשכון
דנו
ואיני
הפתח
אצלי
##טנה
##ידן
##ח"מ
מאותו
במתניתין
בול
שראו
מלב
שפחה
השמשות
להמתין
ערוך
שמכר
##פלא
מצרי
שדהו
וחצי
מצאו
##פיו
דמעיקרא
הדו
##יקות
כשע
הלאו
דגי
נחל
שהצ
לספר
בסיפא
בפיו
ממונא
דהע
חיבור
מדינא
בתפלה
השק
בצר
במל
ועכ"פ
וברא
חלילה
ילך
ובניו
דעה
מורי
תאכלו
להראות
אותנו
##קם
אחרא
בפעם
שיצאו
גנ
שרש
מחיצות
##תו'
לעם
טרי
לעדות
אחרונים
משמר
##סבר
להכרי
##ויין
בתולה
תועלת
בידה
נהר
מגילה
##נטרס
הגאולה
אומות
טרם
הכותל
היראה
רשב"א
במחשבה
בקנין
לשנים
דית
##נותיו
קרח
לעיין
##טער
הסכים
בזוהר
לחברו
ליכנס
הפל
##נט
ועמ"ש
יורד
שבארנו
כחות
##לבש
דחל
כעת
להפריש
המקומות
שנק
כנסת
הוכחה
חטים
סלע
שנברא
##פרישית
הספרים
##להו
ידיעה
שירה
ליזהר
יוצאין
נ'
ויהיו
מפס
מלכא
וכ"מ
אבהו
דר"מ
דתרו
להקריב
שלישית
##טלית
##ירור
אמצ
##ולחן
##ודו
הטובה
קבלו
הבכור
ערבית
##דרגה
מלאכי
כיב
לגלות
בתב
##ירש
מינו
המלאכה
##סיא
##ריאה
##שאין
שנותן
באם
חוט
חבית
קפי
##ולדת
כשיטת
ת"ק
מער
זונה
יתחייב
אפלו
למדת
נבדל
ריק
מחוסר
מפיו
משנת
דרש"י
שמענו
היתומים
כור
טובות
ימיו
שהזכיר
הבדל
הריב"ש
זוז
שדבר
תשב
##מצעי
הגלות
##פלות
השוכר
בדא
לדור
חלקי
##כחיש
ז"א
הסברא
אחריהם
לראובן
בישול
##זון
##צבע
הסת
לר"מ
תמ
בברכות
עמנו
מהכא
האמונה
##תימה
שבוע
הפרש
לטובה
ל"ק
המור
עוסק
##קרו
לשוב
ס"ה
השבטים
הנח
אדני
לחצר
בחלק
כאמור
וכמבואר
אונאה
##תייהו
נתינת
##כ"נ
שהלך
שרצה
ושר
הות
כ"ע
שבתו
##קשינן
דמוכח
דקיימא
##מידו
לעומת
אצטריך
אעשה
##זת
מיותר
לע"ד
מובה
למצוה
הקנין
בבלי
היצר
##פשיה
דא"ל
סופו
ר"ג
##ודאה
מערבין
##בדה
למידק
פורע
##קוב
הולכים
השג
במנין
.,
##סורת
נופל
החמור
עוז
הנקב
כזו
יצטרך
האר"י
הגשמי
##דרשינן
באומרו
מדי
##ולדות
למזבח
חושש
המאור
ופטור
אפר
מרבה
מאור
חייבת
##מידה
מיוחדת
מביאין
טעמים
שנוה
דפרק
משר
שפס
הכותב
##ב"ע
המכה
##בעלה
תלויה
ולעשות
שורה
והניח
שנתע
##קף
יועיל
מג'
ציבור
דיקא
ותוס'
##ובב
עלאה
בשה
פקדון
עמדו
המורה
דא"צ
היכן
גלי
גבה
וגבי
ישנה
היסוד
ודברים
חמא
##רגם
דרכים
בנימין
הפנימי
ואנן
ומעשה
נאמרו
החג
ונתנו
ניד
ס"ו
לבקש
השוחט
קראו
##ליה
העני
מעותיו
לעשותו
##ודף
לתוכו
לבם
התרו
##ותב
הוי"ה
חנוכה
בשלו
##י"ט
##חזרו
הקדשים
דורות
מאלו
יבש
עליכם
##בילו
##זירה
בינייהו
והמו
שידע
לענ"ד
לכלל
##צירה
דעתיה
יהודי
ומסיק
שכירות
בשביעית
יבם
וקא
לאביו
לוק
פרעתי
ל"ו
##טרפה
##צ'
יודעין
וחר
שנוי
מתחייב
לשמואל
ללוקח
גזרה
בקידושין
להצ
משמעות
ופירוש
נבו
רשב"ם
אומ'
ומשו"ה
טעה
יציאת
לשר
ליהנות
האותיות
הית
בכלים
איתמר
בתוכה
שמתו
חטאו
תכלת
חביב
פשט
דחולין
במשנתנו
לשיטתו
##ביט
##תויי
דרישא
נ"ט
הש"ע
תרומת
דכתובות
##ינוך
נפסל
##ולן
##ורתו
בדם
דכ"ע
שערי
לדוד
ואמרה
מתורת
##מצם
השמן
פכ
תמיה
במלח
##דיקה
הציבור
##חלט
טעון
תמוהים
##יוח
ירדו
בריאה
מ"ח
אלוה
לבעלים
א"ח
דנהי
שבג
היכל
כדלעיל
##חתה
שבס
זבח
שמד
דבד
ואמו
##ליחה
בהכרח
החלק
הראיה
ורע
והראב"ד
מלכותו
מואב
במנחות
קדישא
הפע
ויאמרו
יתרו
##גדיל
מלפני
לגד
ולעולם
עסקינן
##שואין
הנני
שעושין
וארץ
כנען
מ"ז
מותרים
בבקר
והקשו
צורה
##ריכו
ב"ר
בשרו
כשמואל
אוכלים
והדבר
מתב
בקדשים
מתפלל
##פירת
גשמי
ואהרן
תמים
אחו
יתנו
דמן
תודה
שונא
הוצאה
ענינו
להחזיק
כר"מ
אוהב
##פוי
ועומד
בההוא
ולקח
אבידה
אחריה
##למודא
##רוק
ולמד
הנת
מחובר
זיל
נתכוין
נמצאו
בשנת
החזקה
שפע
##שבועות
כמאמר
רס
מומחה
בראשון
##גייר
גזלן
וכר
יוכלו
מאין
דמסתמא
גודל
ירוחם
גלוי
בצל
המתנה
##סקא
המ"מ
##דמן
עדן
שתיהן
דאתא
בשלשה
שדרך
השכר
שיראה
##קוחות
סוס
להכניס
והו"ל
ולקמן
ונח
יט
קהל
##טום
פסוקים
אחים
דחז
דעתם
דמיו
ועשית
לעד
ודרך
נדבה
וידבר
תי'
טומא
##פטרו
##ודין
##יקי
כפי'
וכמש
שנשבע
נאמנים
כני
יכנס
יטול
בעוה"ז
ס"ט
##כ"ע
דבשלמא
משנתנו
##לוקה
יהודא
הצורה
שכח
ר"ז
במועד
ומאחר
ודבריו
יחל
##יוה
תבע
ועז
ידענא
בעזרה
הבבלי
##מודים
נקיט
לשמש
העובר
##טיר
פעל
העגל
בזבחים
הלוים
בעצמם
קמיה
התנו
ראיות
מוב
##זהרת
דאה
יתי
מבפנים
בהמות
מתח
##שלומין
זנות
בשוק
להפר
ניסן
בנס
נכלל
והענין
לאת
אבוה
בפרה
חותם
קצר
##ובו
דרבה
שמאל
פסולים
וכה"ג
ושכ
##ונות
בעליו
מהר"י
בתנאי
הותרה
בחנם
מלאכתו
היורש
הגשמים
לק"מ
אצלם
ושע
ללו
שבזה
הוצא
לינ
לפירוש
ביאת
לבנים
נותנים
במדה
עלתה
בברכה
והז
והוציא
ומצות
שתת
וכדאיתא
ההיתר
שיג
תמן
##פטים
ובן
לנכרי
לגרש
החיות
##שתו
בתחילה
הזקן
הלכו
גרים
בעה"ב
כמוהו
ויעקב
לעבודת
והול
##ש'
##בורות
ומשה
דההוא
בלעם
ב"מ
מכפר
כמ"ד
רבינא
##נדל
בשלא
##פועל
שיוצא
##יקנא
ל"מ
ושמ
פד
הנכרי
ידבר
קונם
הדיבור
כמב
##כלי
ולפע
חזינן
לים
וכ"פ
לראש
בכורות
אתר
במלוה
טען
ובפ'
בקדושין
##מכו
המלו
לון
מעת
מדובר
להז
שנטמא
יתע
למילף
שיהו
המדה
קיבל
איסורי
דעו
וכמש"כ
שנד
מדרש
וא"ו
ב"ק
להפק
הכתב
קם
להך
שהביאו
התחלת
ברמב"ם
זל
בשמחה
בראשו
נדרו
נסת
##פאר
נלמד
נפלה
גירסת
פטורין
ממונות
נקראו
שהדבר
ועכ
אמונה
מעלות
בנפש
דהני
תשעה
בפרשה
##כרון
נמצאת
ביל
ופרש"י
לנס
בהלכה
הכוס
סכין
לבניו
##חזירו
יפר
##שוה
נפטר
וענין
נתק
מעשרה
פטר
המשת
מחר
בחצי
אימתי
בחיים
##ילמא
ומסת
אכלו
שלקח
##לילה
הקדים
דרוב
בתה
##טומאת
##ציר
חכמת
השלחן
וסי
מצורע
וז"ב
##נויי
פשתן
ורח
וילך
הב"ד
ראייה
חמורה
דוכתי
רשב"ג
ידעת
##נה"ג
יוה"כ
דיעבד
שמצינו
ביצים
##צוע
דבין
הצל
לרי
מסכת
הויה
##יאו
טהורים
תירו
דנראה
הקנה
סלקא
##שירי
##זוזה
לעבודה
וסו
למחול
##קני
נאמרה
בעול
מד'
ולז
יפול
מוהר
נאמנות
הסבה
ונשאר
העומר
ומאן
##נויה
בארנו
כפול
הפרו
כלשון
בטבע
ארוך
איכ
מסירה
ועבר
לעניים
ואשה
פנחס
הקרב
מטהר
##נף
בערך
היורשים
יראו
רמב"ם
מומר
ללוה
מאז
מבוי
בחייו
ניצו
דמצי
אויר
##ריאת
תרומות
שרץ
בשלימות
שיעשו
ענינים
##פתים
קח
לדרוש
להקב"ה
השבח
כשהיה
הירדן
ואתי
מקוה
##איסור
בבני
דפ'
ד"ת
##שועה
במדת
כלב
אומן
מספיק
נסים
בניסן
חייבי
##עון
ואר
שלפי
הכתובים
אמ'
דתנא
שקל
במרדכי
##מרדכי
התיבה
##צרת
ארון
מול
המלכים
##ניאל
תמורה
בשמעתין
עבירות
ברה"ר
דאור
מעביר
##עלין
ריעותא
תולה
פסידא
##עבר
לר"ש
להקדים
והמח
ספי
למות
העדה
המיתה
עדיפא
בעצמה
בבבלי
שלימות
רגע
המלח
דקדק
הדורות
##יעתא
שמחת
הנחש
למדו
דעתך
שנתנו
##דקדק
כמע
מכדי
לאתויי
חשוד
דנה
במצ
##ירסת
##לוף
מוקמינן
##ישא
יוצאים
יבום
להפסיק
##עבדי
שנ'
ס"פ
לקחת
שפירשו
ורוצה
למצרים
בנפשו
תתא
שהניח
פטורים
הק'
עי"ז
ככה
משמיה
דליתא
##דאורייתא
##ירך
מקרה
נשואין
תוב
בהס
תפארת
לאביי
הבין
##יפו
##ינוקות
תבואה
נוסף
קים
הוחזק
וכדי
רובו
מצאנו
אתמר
דסו
##מירו
לסו
זבחים
וער
הטו
##ע"ה
חומה
הגיד
כ"י
קוב
ואתם
שנפלו
ומצאתי
##ושט
העובד
דר"ש
##ליקין
שיאכל
פתי
לפחות
שיעבוד
נתבטל
בשאלה
זכאי
הרחמים
התפלל
##ביי
ולהלן
חסדים
##כום
##ג"א
וכבוד
עזרא
ושמעון
כר"א
דשל
כדפרישית
שלפני
תירוץ
##חול
יניח
הפשט
דע"ז
לסוף
שבתות
עולת
##שרי
וחס
לטהר
קדמו
ונפל
בדבור
והבא
הקרן
##ט"א
דשייך
החר
סמכינן
ביארנו
מע"ש
התראה
עליונה
כלו'
והיל
##רש"א
טעמי
ורוב
עה
דמאן
במקומות
צלי
שוטה
נתכוון
דילפינן
באלה
##שאו
נשתנה
##מישי
קרוי
##מוק
הקורא
שלמעלה
##תומה
##טיט
מזר
הוצרכו
בפ"ג
הדיו
מפור
העיד
##ימא
מונה
סתירה
יגע
דז"א
נפיק
להתענות
הביאה
האהבה
##ביות
עבה
בטיל
עשיתי
##יעין
נשמת
דיומא
שפרע
בוודאי
לחולין
המבול
האכילה
בע"ז
בפ"א
דמבואר
כבש
ידענו
ישאר
הסכימו
שא"צ
שעורים
דידה
הריאה
רוחות
עברו
הנמצאים
למנ
בעבד
דמלתא
שנכתב
גמורים
בתרו
צירוף
החמץ
אתן
##או
והלכתא
שוק
הדב
ויצ
##נ"ל
ומוכח
להדליק
ופירשו
##ינוס
ל"ט
##שתם
בצו
לאות
ומלא
##כסה
באהל
כליו
מעור
ומיד
אסרה
מניין
גרושה
שמיה
ולס
המלאך
דהלכתא
ולילה
דבני
##חטה
שאת
מטע
עצרת
עריות
להכ
בעבודת
##ניני
מדינה
שאור
תדיר
דדי
קדשה
השאר
ופרק
מלק
##זול
כרבא
יחזק
היהודים
השוק
לעילא
עינים
תולין
רעים
כותל
לקמיה
זול
כהר
למצוא
למיתה
הדינים
נראין
גזירת
##חטין
##מיע
וסיים
בשלום
##גוד
ואינן
המצוות
שנזכר
כדאמרי'
חיב
נ"א
וי"ו
ותירצו
##ילנות
ובמש
השרת
אמורים
להפ
משלי
בתחילת
וחת
הצאן
קמייתא
##לד
דיליה
דה"ק
תואר
נפלו
תעשו
קסבר
התנאים
פ"י
##מיון
##לג
הסכין
הזכירו
להסיר
והתוס'
מסיני
הולכין
מקבלים
##מוני
מעכ
במקומה
תהו
##קומה
מליחה
מיע
דמצוה
מכ"ש
##נגדו
##ראב"ד
ולהיות
גאולה
##שוך
שמיני
מרח
שצוה
שכחה
בפיר
ומחצה
עיסה
רגלי
##ס'
המעשר
עיניך
בעוף
ומדברי
אדון
ואותו
##והי
נביאים
סא
לכהונה
המלחמה
ומטעם
##ור'
רחוקה
שחת
לאכל
##ושל
מגן
קראי
בכוונה
אסורות
ועלה
דדינא
חם
דבכה"ג
דדעת
עצמך
נתקיים
האיך
הכרח
מחזירין
##זלינן
מומין
לפרושי
##פניו
בעני
בכוונת
ש"ש
ודוחק
נחלה
##ייה
##יחד
משכ
אמרנו
אומה
לדידיה
התחתונה
הסמו
נכונים
ינאי
רעהו
לנהוג
##פשטות
מודע
מלמטה
הכני
עקב
פא
הוזכר
חזרו
##רונות
מלאה
משתמש
המאכל
##רבעים
שלמד
וחכ
הגוזל
דכן
ענו
הלבנה
למל
##פואה
בפירות
##יעתו
##פם
שהרג
##פתי
ומוציא
בזמנו
##דב"ז
דלכאורה
תפיסה
החזיק
בפלוגתא
ואעפ"כ
לתרו
מס'
מחשבת
##כינה
כדאי'
רמ
דבל
מיר
הבגד
מהע
מכרו
התובע
מאליו
נקיים
בעשה
##זוב
ממקומו
דקדושין
בנזיר
בוא
מוטב
פסל
הכרם
##דובר
עדותן
עברה
מוסף
סליק
הנושא
##וגן
##פחת
בחדש
הגר"א
שבכתב
ושרי
חוצץ
##גחה
ור"ש
יצרו
נסך
##ביב
מהרש"א
כף
ואנ
משעה
בפש
דופן
יתעלה
הסמוך
הצדקה
וא"ש
בירך
ואמת
ואעפ"י
##ריקה
דרשינן
כתובים
##בונה
עראי
תוע
##ולש
הד'
דאשת
כמר
נתר
דמוקי
##ביאים
ורגל
בב"ק
פסולין
מוסי
עצמי
להרחיק
##כסיו
לפדות
מחשבתו
לדעתו
עונ
פלגא
במשפט
משכן
זריקה
בע"ש
מבאר
הראשונות
הנע
עונה
##יתות
ברבי
והשב
מהרש"ל
##ינתא
##כיות
גירושין
שעלה
##כיב
##מיץ
דהק
רבוי
באריכות
יוצאה
משוב
##עותא
קץ
לימוד
##שוד
הכסא
תד"ה
בח"מ
שקלים
דאנן
##פתו
למק
מאשר
שקיל
מחמ
עצי
תבוא
תלי
השפע
##ושם
והארץ
נטילת
מיחייב
השפ
##כוב
ונג
ומצד
##נאל
##מוכר
במגו
התקנה
תמות
עומדין
והיכא
##סתור
מיתות
##מונא
להגיד
הדיינים
שמור
##טיח
##יער
מקמי
ללוי
##פתה
אמירה
קבר
לטבול
הלבוש
לכסות
##סורים
##חרית
העתיק
נפשה
שלמות
בנד
קושיית
##יתים
מיני'
יתה
מכם
וההיא
##לקול
באויר
וכלי
מהרא
##נבא
המוש
ציר
חרם
כשמת
##גדול
לר"א
הודיע
לעצמה
כדאי
זלה"ה
חסיד
החמירו
שדרשו
לד'
גילוי
דקשה
שהז
ר"נ
לגבוה
בשיטת
בספרים
הצר
שינו
##ת'
##כיחו
##צך
שאו
מהג
עולא
אחריתי
##חזירה
הראה
שבידו
בע"ח
במעשר
ההקדש
ועי"ז
מסי
דבית
##חתן
ירושלם
באחת
וישמע
דדבר
נכל
##בינן
לחול
דיבמות
תיבה
מספקא
דירה
מדקאמר
##גדי
המעשים
אהיה
שבית
שונים
משיכה
##ינר
נחמיה
להסתפק
התמיד
ניתנה
##חדא
##גמא
גרידא
נורא
אילנות
הסוכה
עכ"ז
דיי
שחזר
##כלות
##ותחין
משפטי
בשחיטה
לטעמיה
ובספר
רפואה
מכוין
איכפת
##כלא
ה"ק
מפריש
דחוק
מטר
##חקו
שהתחיל
גרמא
רביעי
דינה
וב"ה
הפחות
כפשוטו
##לוקו
בתכלית
התנור
כאלה
ממין
פרש
האחרים
ושמו
בקרבן
קרינן
מראש
ופל
האבן
והתורה
שהל
צפון
לשי
משך
כדלקמן
##חתונים
##כרין
בדמים
דניחא
גי'
##ז"ה
מאמ
ואשת
ושבת
שלק
חייו
בסוג
האמצעי
מדברים
עידי
עולים
לשמים
ניטל
דרשה
##שרו
דאדם
שדו
היובל
לרוב
בחג
השומר
הכבד
ומשת
טעו
סוברים
##שרין
ויג
תשלומין
ואיתא
לכר
שהבאתי
##דשו
שכלו
לבהמה
##קיט
שתחת
הגבורה
חיצו
בדיק
להפך
טורח
ל"ז
לטל
##משי
דיליף
דפסחים
הרא"ם
גומר
היותו
##תאר
כהל
באיש
ידיהם
ההו
זמ
וכדאמרינן
ס"ח
יבמה
נער
לכפר
ותי'
אשור
קודמת
צבי
מהק
מכיון
מחנה
המחלוקת
יעמוד
כרי
ואדרבה
בלחוד
הפה
שייר
וסוף
שרק
דמסיק
לעיני
ובדברי
##פוץ
למים
כאחת
דברכות
##פיקות
נתו
דילן
המפקיד
##שק
הבחירה
ניקב
מעידין
וג'
ובסוף
הזכר
סך
שנעשו
רל
אכלה
נותר
הוכיח
##בתו
בטעם
##קנא
ולענ"ד
##יימה
סיים
כונתו
הבקר
אפוטרו
כהוגן
רנ
שימצא
##סחא
מונ
הניזק
בספרו
ודור
##עני
מהח
איזו
דבנ
הקדושים
הקדושין
מבן
מעשיהם
##לתי
בדד
בנק
נבראו
כעו
ט"ס
##מרות
שנתב
בשבועות
וע"ל
מתנת
תלינן
לקרקע
התח
בסכין
פרעון
בה"ג
דגרסינן
פחד
הדיין
מסופק
דהינו
דגמרא
דער
דלשון
והובא
ושנים
דקידושין
ותדע
השמחה
ומייתי
הקדי
בב"מ
ארוסה
דאיסורא
##בריא
ובשר
שמין
הצו
ומתן
למקדש
שכיב
המין
ריוח
שרוב
שיאמרו
כצ
##טהור
ברע
מאיסור
##יאש
מחשבות
אמצעי
הגור
דספק
להנשא
אדוני
דגיטין
##ליפות
מתחל
הפקדון
וקשיא
במעות
##ישול
אחותו
ענבים
העונש
חמרא
הארכתי
קמח
הנהר
##שאיל
איברא
תורתו
נטע
פלוג
הקידושין
מחוור
תחומין
גלו
שמשון
וב'
נפלא
מבעיא
מבעוד
##לוט
לקט
##חינה
שנתחייב
חוזרת
##עט
בארו
בפניהם
##בחר
כפירוש
תיקשי
עמ"ש
דלאחר
כרם
בחדא
שעמד
לפענ"ד
מביתו
לגרשה
##רבות
##טוו
נתברר
קיימי
מותו
ובלי
וכעין
למימרא
##מצום
מימי
יוצר
בזאת
נדו
נבד
##מיהם
רוחב
המקור
הספינה
מזמור
מעבר
נלע"ד
שבד
הנזכרים
חושב
ברכו
בונה
ישי
הקבלה
דלק
עשיית
##פרך
##קוע
##טרות
##סתו
##כנת
לו'
מעשים
החיצון
קודשא
יאכלו
למכתב
שותה
##ולדו
מחזק
יוסיף
##יבי
##ביחה
נרות
כדרכה
וה"ל
##ישן
לשקר
אלהיכם
טלית
בכה
ש'
##ילתא
להתי
נפשם
לחבר
הנוגע
שדות
##דבק
רד
נר"ו
מעלין
##דיעבד
הגג
סלעים
ח"מ
חופה
פלא
##כאשר
ולמטה
תצ
וכלל
##שעים
הבנין
עולות
אורך
לרצון
למוכר
זוכין
גירסא
קבו
שלשתן
ותק
##ינ'
אצבעות
מכוון
כדפי'
שכיר
קטנות
כללא
##ילק
שבתוך
##כורה
והמע
לסלק
הפי'
##פרד
וירד
במלחמה
מקרב
דלכך
היבם
##צן
במלאכה
בהע
##שיית
דעות
##קדשין
קדשו
הפו
קליפה
תנשא
הקודמת
עוק
##ברכו
האדון
זרוע
שעומד
ורצה
אבדה
##ארו
מעידים
עשרת
הטב
ואזיל
מטמאין
ככ
שמקבל
עניני
דלגבי
מסברא
מעלי
דשני
##כנים
חציו
בכורים
דר"ה
שניתן
ובשביל
דבלא"ה
ליבם
באותן
כשרות
##יבוד
זולתו
לע"ז
בבחי'
##פלין
שקדם
בנש
##מיט
##פוט
שלהן
##נהיג
מאתו
##תבוע
ואור
למלכות
והשאר
אידך
דדריש
מזמן
אלקיך
שדברי
##קונה
בפ"ד
תינוק
במקרא
בבירור
העשה
הוראה
מקפיד
צרכי
בעור
נקטינן
##לואה
##ברכין
##פרנס
יחזקאל
היית
ששניהם
##ידור
דגן
שפי
שנשאר
וכנגד
ן'
##כית
גמ
מהס
עינו
##אים
##ראו
וקי"ל
הנודר
הכרי
שזכה
ולפעמים
##דותו
מיבעי
אוי
בטול
##מנע
הרביעי
ח"י
שריא
גופי'
תיפוק
##ליפין
עבודתו
הגב
בקל
תלה
הפשוט
איסורין
אכול
המדינה
דדברי
בבעל
##נבה
ובגמ'
תרין
בעיניך
##מתן
התבאר
הגולה
##דיף
חילק
##ע"ז
##צטרף
##בך
לבנה
במספר
צ"ב
שעליו
במלכות
אירע
והשל
בעבודה
קרקעות
וממ
גדי
##ונא
נקנה
ומעלה
שסובר
המביא
לבת
נעלם
לספק
דהם
מדאי
אנוס
מרים
יזכה
אומדנא
לירושלים
##לחו
בשמ
מעמד
כיום
משהו
מפקינן
##פשטא
זקנים
צריכא
דע"י
ועולה
שובר
זיו
שדעתו
המעלה
##ייף
ערות
בחינות
במעמד
מכרה
בהיותו
מהרה
כמוך
נדון
שלאחר
באהבה
כזאת
בידינו
העצ
וכ"ז
הקר
בפתח
מל'
דיבר
פטורה
לשתי
הגלילי
אוכלת
מובהק
העשוי
שדעת
##טם
יושבי
הנאת
נתת
מרמז
תהי
רביע
לקטן
לשליח
ותניא
##דושי
להקנות
##סורה
##צילות
בשבילו
כשש
פעולה
אשכנ
לעניין
בחטא
כר"ע
מיעוטא
שייכות
יאיר
כשאמר
ומנין
נוסח
כ"מ
##וציא
בא'
##טון
לחשוב
וטו
ומלכות
כותיה
השלם
##סוי
הסמ"ג
##בטל
ואמרי
##ר'
מתחלת
לרבים
אחור
אקרא
וקודם
עולין
##פנו
בב"ח
מגיד
ב"א
והשו
סימני
שלוחו
מפסיד
זכרון
למיתני
סחורה
לאשמעינן
להרבות
היק
שהוק
לחיים
משק
בטענת
והדברים
לני
סתום
יתיר
המג"א
##מיים
דינין
ויברך
##כהו
##שב"ץ
בקונטרס
יכלו
מבחינת
עי"ש
ממא
השנית
וכדכתיב
##קירה
מודעא
השולח
מזיד
התחתונים
ובכי
וגו
והנראה
ונפ
ה"ד
דבח
להרוג
##גאון
וקורא
##ניתן
המבואר
העדר
קפידא
שמסר
תקנתא
האנו
לבבו
ראוים
אילימא
שקול
##שי'
מדרך
לתחום
מזון
סדום
ולהש
אברם
לקרבן
קו'
ויפה
עדין
מרה
##מחים
##יהון
תנאו
הנרות
לאר
וידע
מתפל
המקוה
ינו
דידע
למשל
;.
שינ
דדין
מעשי
בזה"ז
כדמפרש
דכ'
דעתה
דמודה
ית"ש
המ"א
##עה"ב
ממתני'
החילוק
חשובה
מבק
להוציאו
דאחר
טרפון
הישר
מקיי
ס"ז
##מינא
משע
בהקד
שנדר
הניחו
ומברך
אמוראי
ואיהו
אתרוג
וטמא
איניש
מדקתני
ויז
##ריב"ל
##ריק
##וני
בשות
ג"פ
חשבו
מדליקין
להעביר
בעולה
לפום
לבדה
והעו
##מאירי
מאכיל
תקשי
ההיכל
אברים
גזילה
שרת
ובמדרש
אלין
##ותרה
לחכמים
יקום
##צווה
שבני
ראית
מיי
איהי
וסייע
והלכך
##יעים
##ישים
ירבה
ישנים
הקונה
קיב
הדשן
החודש
ועליו
לדרך
להט
דלכת
דאיך
ותת
יחשב
דתל
לשוק
ניהו
הדרא
ודומה
גריס
##יאות
נסכים
##תף
בריתי
##יחס
עננו
שוות
בע"ה
##יהוי
ישעיה
דמות
והמה
ויתכן
יצאה
חבל
לגוף
לחייבו
הרים
וזכר
דאינון
##למידים
באחרונה
עשתה
בחזקה
##בעי
וכשם
ביחיד
לבלתי
מיק
##ורג
השמיני
שאילו
בעשרה
וקרוב
השוה
מאומה
במציאות
דדמי
וטרי
##צילו
הנתבע
לחד
דנימא
במשהו
יקבל
פניהם
נצר
תרווייהו
הכולל
הזרע
קמן
דקשיא
בפרו
##יו"ט
נזהר
##כלין
פרשיות
דאע"פ
אודות
##עיין
החטאת
גימטריא
לקרוא
לבבך
שבלב
המינים
האחת
כדבר
פר"ח
לתבוע
העצם
שונה
##זקן
העיטור
##ותיכם
יני
##סי'
קלים
##פנה
באתי
תפלתו
השמות
כותי
ונפש
בקב
מכני
כדמשמע
נגלה
בשמי
מתקיים
באחריות
חובתו
דחה
חששא
יטע
ובשו
בפירושו
כדרכו
אדא
ויין
גדל
להקדש
הקטנים
אורה
וכ"ת
צפו
המכירה
הצורך
לשונות
שיביא
במחלוקת
בב"ב
ביתך
שחיטת
הושע
מעליא
חגיגה
המצרי
בע"א
וקל
דעיר
תענו
האיר
דהג
בפ"ה
פשוטה
כמש"ל
ואידך
ברך
דמחייב
חיובא
שבאמת
##נתם
בימות
לתפלה
ילכו
##להי
תשו
##צוף
במ"א
##נגולת
פג
וישלח
דשק
ובהא
נפי
כנזכר
##קונים
##קוח
לכוין
##יקו
:.
יחידי
ושניהם
עזר
ג"ש
גיסא
##טנ
האמ
תהי'
גרסי'
נסתלק
מניה
והפר
וכשא
הפסוקים
##מאות
בעבירה
פרנס
ולדברי
##בראים
שהתבאר
##מסר
השמיט
נכרים
קרובה
תשת
פירי
לצדיקים
בטהרה
##ירע
##יאת
בשור
עולמים
הסופר
##פשע
שעתא
נפת
##יקת
וחטא
דוכתא
איבעיא
שנפלה
האומה
פותח
ועמד
##חיב
קולו
##זיקו
בגדיו
א"ה
בכותל
לטומאה
ומעשר
קנאה
תובע
כרחו
עבדך
לרעה
כתיבת
פלג
ההרים
עירובין
הרגיש
כיוון
דהכל
לגא
מגר
התבואה
דאשה
##תייר
גביה
עבדינן
וביאר
ומשפט
תרוייהו
ישנו
לכי
שמפרש
ומכר
##ובדי
מצויה
מוג
תושב
ונכון
בורר
##ישת
וחלק
דינם
אבילות
גווני
דוק
הזהיר
נדחה
כתבי
באחרי
##שבתו
בתנור
בקיאין
לחלוץ
##יווי
חתן
ולברך
##ט'
שיור
ומתה
בד"מ
##טוי
וקצת
שהבעל
קיימין
דאזלינן
כמובן
וקנה
ואיסור
דנדרים
להודות
שעברו
הדברות
איוב
חילול
##קבא
##יובתא
ואתא
נבל
וראו
תרועה
##עסק
##דוע
שביד
נכונה
ברבים
נשמתו
תיתי
בזיון
##פלגי
גואל
לשנה
למעבד
נ"ד
שכולם
הנכנס
בח"א
כשאינו
##קול
ויתר
בטב
בדיבור
נחית
ככתוב
השבע
דאמאי
והאריך
שפל
ובשעת
##בדי
דכולהו
והכוונה
לטעם
סיבה
וערב
להעיר
דשמע
##טרין
שאכלו
גזרינן
דפסול
תביא
דסנהדרין
והרבה
מאיזה
כחכמים
לאחיו
מעליו
לאיזה
##לימו
ובס'
מכי
השיעור
להגיה
השלישית
לקבוע
מאח
##שורוש
שיקרא
זא"ז
וצר
שקודם
הבינה
##לוג
מוחל
שתמה
שו"ת
במשנת
כסות
דהב
ביניהן
שבב
##שבות
מנכסי
אדעתיה
מתקן
הנשמות
חמין
ואות
אוחז
הר"ר
החבית
דבשעת
שהדין
בביאה
##חמיו
בחידושי
הב"ש
הכתיבה
ליע
שבטים
אורח
מביאה
##פקו
הנשיא
ראויים
##פף
סומך
נסתפק
קידש
במיתה
בשבח
הקדיש
גיהנם
במשא
הכיפורים
##לתות
הסתם
##שבי
תנור
בכות
וכפר
למקומו
בעירובין
פקע
קין
התכלית
הזב
בשינוי
ויעש
לעלמא
יבנה
##גזר
וקבל
מדמי
דל"ש
נהירא
בדיו
##ליו
בסת
מרגיש
ש"ס
שתקנו
כמלא
שמירת
שתק
והקב"ה
שניהן
פרוע
נחלת
בקהל
מעמידין
לשנויי
כללי
שוחט
במשמע
ובתוס'
ש"ח
##חיטת
לחזק
נתח
תכף
שמשה
בהמתו
מנלן
##ניהן
להכני
ופשיטא
דזו
ובשבת
##לו'
##ליקה
יבין
בחס
מטעמא
קרע
השגת
מתוק
##נחומא
למלחמה
אצלנו
שהחי
בלק
עמים
משתי
לאחור
##אתים
הורה
ודרשו
##קופה
##תהו
מושל
##ינח
כשהם
שאתם
בניך
ביוה"כ
##בב
ההבדל
תאוה
תבין
בסתר
צרות
##מועה
חכמתו
המנורה
להתחיל
קנא
##ה"מ
והרו
מסור
לעסוק
שריפה
לשבח
בש"ך
ופירושו
##סוך
דתימא
##יל"מ
כמנהג
ומצוה
ליי
פניך
במחובר
לבשל
וצד
ומקבל
##זרי
נוטלין
ירך
וקדש
ותרו
הידים
תנאים
##כרא
##ידת
מטמאה
העבירה
הרוצה
המנין
דמשני
##ישע
ולעיל
תוספתא
סימנין
או"ח
מסיים
שכ"מ
בקט
##טיפה
לאשת
אעפ"כ
והתניא
נוהגת
איסורים
בטלו
שידוע
במכילתא
הגפן
דר"ע
וע"ע
חזקיה
כמנין
אחורי
אשכח
בקיצור
##יני'
העשו
מגע
והילכך
תמור
##ט"ו
שהשם
בדרבנן
ור"ת
##חוסר
פועלים
קצה
ומני
הטהור
המשלח
ילד
דרשא
ופרט
הרעות
להפרי
לעולה
ניצ
דברינו
מנשה
דביצה
בכ"ז
תקי
הכוכבים
מאר
בדבריהם
חלון
מותרות
למצות
החזיר
##זיל
אחשורוש
מוכי
היחוד
##ל"ת
##כולת
כנה"ג
להשו
שנצ
רם
דקל
חטאות
מלכיות
##קרה
שקיבל
ש"ע
##חרר
בימינו
סיר
שאותו
ונשת
עליונים
##קצה
מהנ
בשליחות
ומניח
##כוס
אימת
שולח
##זוק
ונתתי
מבי
כת"ק
##ורץ
שנייה
פיה
רועה
סעודות
##ודתו
לחופה
נ"ה
הידיעה
##הי
מהב
##סום
כמעט
דמסת
המשל
קושי'
הכיר
ויודע
##ושך
חט
ונשבע
לב'
בכם
וברור
מאוחר
לחטאת
מהרי"ק
ליורש
נעל
והמת
##כדנ
##יוע
##תימת
גבורה
לפע"ד
הפר"ח
טרח
מזוזה
לההוא
מבשר
"?
בשניהם
בפנינו
כתבה
וכס
זקני
בעי'
ועשרים
לעורר
יקנה
סומכין
ורבים
עופות
בת"כ
לפק
הבט
בריאת
בחבור
מיתתו
##עז
וכמ
מכרי
##עוטא
שהרמב"ם
פשוטו
##פעמים
דקה
##נוב
נשמות
למול
מקי
אבותיו
דיר
##כירות
שהות
מלאכים
שמשם
למוד
##למו
שיוציא
המפור
ישיב
ועוף
הכין
לגו
ואת"ל
שהאשה
שכאשר
##יוני
וכיו
בבכורות
מהדר
לקיום
השומע
זב"צ
להון
לשלוח
להפקיע
דכשר
מקצתו
הנשואין
ולג
לקיימו
וחמור
##נהגה
ותרי
ואיזה
וד'
גוד
בסוטה
אפס
נדרי
##ורבן
הנשאר
תבשיל
מוקדם
##ישר
##ובות
במלת
מעיר
כדתניא
##חזקו
חתיכות
תשו'
שקבלו
##כמתו
המחזיק
נסתר
שטרי
ומתו
ישבו
מאחד
עניין
לעקור
צרתה
הצריך
באשת
בשג
דסוף
בצדק
חשבינן
בע"פ
דבב
ממאי
שנטל
##כ"מ
מסכים
הנעשה
לחירות
יומת
הערבים
מלש
וישת
##צתם
יולדת
מביאים
##גדה
לוט
לדבריהם
העצים
ההלכות
פר'
מכירין
פול
##כינו
##מתך
##שאים
לבך
מבעל
עפ
לפי"ז
אדמה
כתי
הפרט
לחכם
איסורו
##וקימנא
בחזק
והוסיף
מכמה
כדאמרן
זכרים
בבבל
ליור
בדלא
בנך
שמוציא
ואהבת
lt
תקח
gt
##חישו
בחידושיו
##יביה
ונותנין
וכולי
דלהכי
אוסרין
##כדנצר
לענות
גופי
לזרע
##דס
##פעל
מפו
דכת
מזל
##ראת
י"ה
באנו
##רי"ף
##מוץ
בשת
למסור
למדין
לר"ה
לנש
שמוע
הודו
ושלשה
##ר"י
ומור
הילך
בגב
דבמקום
לרוח
אחין
חשך
כשו
ובתו
ולרב
ביטל
##בעיא
והיאך
כדבריו
בעיניהם
רחבה
מדאמרינן
נשי
לעז
##כילו
הפי
##אות
איפשר
שוחטין
חנה
קבין
באז
##יעבוד
לשער
דכמו
##חיית
בהגהות
שטו
מניחין
##וסף
שנתערב
##בץ
הנג
שראיתי
##עילו
שעי
כבשים
וזר
נטילה
קרבנו
קורה
ואדרבא
תתאה
רות
##ננה
בפקדון
מסטרא
יורשי
בדור
##בי"ה
##ברוך
עירו
להיתר
נשך
##נוני
הענינים
ומודה
ואמרת
שהודה
תשע
מינין
בשיעור
##לקין
דלדעת
עג
ק"ק
רמב"ן
מוזהר
בתע
אריה
בקדש
ואנחנו
##ינון
בידוע
כרא
##ממות
הוציאו
נ"ח
בתענית
לפת
יתיב
במהרה
אי'
מרג
בתוכם
לחודיה
לעשה
מחט
אשא
בירוש'
המקשה
ובצ
ובגין
##ליכו
##ותי'
ונ"מ
בציצית
צריכות
בטלים
ה"ט
לתרומה
בע"מ
ופעמים
להיפוך
וכולן
בכזית
וסי'
##כלים
שכש
הו'
והיכי
לומד
ובח"א
ברבית
ויצאו
ותימה
##כנתא
נאסרה
לרה
במנחה
נפילה
ואדם
ובכן
דמהי
דכר
ותע
מגלה
##מוח
הנגע
קצרה
יורשים
שותפין
בהב
בסיני
ששלח
זיתים
לבינה
אחריני
תחילת
תלך
העידו
התחילו
לדעתי
לאבות
כאדם
לשמן
איה
##טעה
דלרב
מהיום
##גלחת
הנכון
##פוח
ת"ת
##פכו
##בהה
ממל
וקטן
##לוקין
הבגדים
האחרונה
המשניות
נצח
##טהרות
היס
##שבועת
לאלהים
מטו
פיהם
##חוי
בשורש
באנ
רבוא
אמתלא
וקיים
וכ"נ
בפסק
##וחא
להתא
##כבו
מרחוק
לראשון
סעודת
ושחט
חתימה
בס"ק
מור"ם
והעלה
##מוקי
להבא
דקודם
טענות
כשל
טוע
מזרח
##סקל
טמאין
היפך
##קבלה
דלישנא
בל'
ותאמר
יחו
לסי
##סרי
לפתוח
שדרכו
עשאו
שישת
##קתו
המער
אבין
כפירש"י
##ירוש'
הוכח
קושיות
עולמות
לוגין
זרעים
דנאמן
משועבדים
##מחו
והודה
).
כעס
חבורה
הדדי
יתפלל
גיטא
מפתח
מטב
שכות
שעתיד
לרבה
##רתי
קולא
##לונות
מפאת
ניזו
פוג
מציל
כנראה
דאתיא
לטעות
דת"ק
משוי
ושק
דהויא
זהובים
##לדת
##בירות
בזמנה
##פאים
שיני
ובנו
צ'
בפרהסיא
יתירא
##מלט
בתק
לחלל
##תוספ'
##לייה
לפניה
ואימא
וכולם
##חיך
ומהם
דהס
שצריכין
ממר
##למידי
פריש
און
דעדיין
ומשלם
עמהן
ואנכי
דאורי
הנחה
להגיע
הלוחות
נידון
בסופו
מברייתא
להשביע
שביעי
מרע"ה
##ינית
שהתנה
הערוך
לדברים
נכר
נמכר
ואלהי
התפילה
טהרות
מבטלין
ניחוש
שפו
התרה
המעיין
ומחמת
ומג
##צאות
מעורב
הפסיד
העתיד
ע"ח
##ישות
הגנב
טובת
דגלי
דשפיר
ויי
זיקה
קבור
הבאת
פתא
זומ
שבהן
לכוף
##לאל
שלחו
בלשונו
אנוש
שאסר
מציאה
השותפין
##משל
כשהן
מועלת
שימות
בגימטריא
צפור
חסדו
ובכלל
לשה
לאחרי
התוספת
עגל
דמדאורייתא
בקדושת
##בועות
לאוכל
גרוש
##רושה
רעב
##וראה
יומם
הנשה
כשאומר
האלקים
אידי
טלטול
טריפות
בכהן
##חרט
שנתנה
הטובות
פי"א
ומיירי
כלהו
יסורין
וקרי
וסבר
ארצה
תיקן
שהרב
שחשב
וחות
משלשה
ולוי
הגיעו
הוצאת
במעלה
לוג
סופ
לרבו
##חתך
לחיות
הרעים
הגון
##טרח
לכלי
איננה
נותנת
כמעשה
##צק
אינש
דצרי
##תיו
בעינא
19
הקריב
מיהת
בשיטה
מבל
לפל
אמנה
בבגד
שיבוא
להדיוט
##לוע
לחתוך
להאמין
##טרף
אימור
בנדה
##מרום
גניבה
##פשי
אומרין
##גישו
האופן
כנפי
להוש
שמתה
ממעל
##קבות
סלה
עילאה
מסוגיא
לדחוק
לר"ע
חדוש
לבתר
נר'
נחשבת
בבעלים
לתוכה
נוח
איברים
הפעל
תחתיה
הס"ד
שממנו
צונן
בוי
שותפות
דחזי
בח"ל
מלכנו
בטומאת
##יונות
##טלת
בר"פ
##דה"ר
דהואיל
להזהיר
##יימת
משפחה
לדם
הרקיע
קדשת
דקד
שחיטתו
חליפין
והוד
שכיחא
דהח
##רהר
ארוכה
לבור
קום
במדינה
וסיפא
בקרן
ופת
שלחן
תאו
נבואה
מהיכן
מקדיש
##יהיה
שנז
גורס
חוצה
##ירוב
מקדשין
ביתר
ה"ב
##קומות
השיי
מה"ט
שהני
שבשמים
דלמ"ד
נתפס
##קבה
והאר
מדוי
יעלו
תעלה
ענה
בחק
נוד
עדותו
הלח"מ
##ילתו
לב"ה
יסור
בחלה
ול"נ
הבאר
##ודשא
בעלת
והואיל
נחלק
ערום
מאהבה
לבשר
שמועה
תהיו
פרקים
יכתוב
תירא
לחקור
ת"ש
##מנ
שיעורא
שמל
ידעי
הקטנה
הראויה
לגמור
וחמש
שעד
התגלות
וכדאמר
וחלב
דאח
לשלו
##חזיקו
פרות
קונ
האידנא
וגר
נרמז
ופו
זרו
לצרף
השליחות
בשלמות
שלשת
בצבור
במידי
בטר
הגדר
ושלח
מתוכו
דסגי
כמא
לשניהם
שומרים
גילה
מטתו
רזא
יוכיח
שבאה
בבנין
דלפ"ז
הצרי
זכותו
##מו"ר
מפרי
פסולי
איד
המלה
וסובר
עולמו
כרשב"ג
וספק
כנו
##שלום
##ניעות
פירושא
שמיא
הר"ם
לג'
ששמו
ואשתו
וכדברי
להטיל
כסדרן
יובל
מצינן
שייכא
דמקשה
##גמר
בס"ס
בניהם
שביתה
דבתר
בפל
דהרא"ש
וקיימא
##עול
המגרש
##וסל
תנינא
ריבוי
תערובת
##שיהם
בהני
לז"א
שגד
##גז
הקברות
ושמן
יקרה
בשופר
אפק
תקשה
מתרץ
שבועתו
משקל
קשור
ובזמן
##ושית
מנחם
ביובל
##שכה
##מייהו
דעשה
חלוקים
שלוש
בבן
##צלו
פחותה
בדרכי
ח"ג
להתר
##צנו
שעור
אכילתו
יושבים
גו'
דניאל
##ייס
רצוני
שהלכה
המצר
באילן
יומין
שרבינו
ובטל
משכב
כשנת
שמאחר
לסתור
ניה
חיישי'
עינינו
ש"ד
כלן
הייתה
שהתיר
כוסות
##מטום
להרא"ש
הנהו
מהרי"ל
##כריע
בנכסים
נפסק
פאה
העפר
##ייג
וכלים
מעיקר
##חוז
##לבוש
סמ"ע
לאלו
##רקעי
שאחד
בקרבו
שר'
##יקים
יודעת
זכרונו
ותני
ור"ח
לתתא
מתיב
ושמר
במגע
הנבראים
הגי
כלול
הקומץ
וו
טעין
##כו'
כשני
הסימן
וחמשה
דזבחים
שחלקו
מלבוש
גסה
פקד
מכשול
בסעודה
דמיון
##ביל
שאיני
לעזרה
##ירש"י
##יבורית
##קדשי
##עבדים
##פצא
בת"ה
ורבו
להכיר
בחמין
רוק
##מונו
להשב
דס"ד
שקשה
אהני
##שרף
דב"מ
הטובים
זמנה
המגילה
קדמה
למתני
ותנן
ובהכי
פתוחה
ויהי'
גלגל
##כאות
נתערב
יבר
##לאין
במוצאי
בבור
שלוה
לאכלו
בבכור
דלמ
נכנסין
##חדו
##שכר
השעה
##גלח
נישואין
##ציה
כלישנא
ולנ
דקים
##פייס
יפרע
התלו
##יקין
סמיכה
הילכתא
##כמי
לצדיק
ונמצאת
לפו
נשואה
לחיי
באחר
ושנה
##מניה
ובסי'
ונוה
עמל
וכשב
שלדעת
##צאין
הפעולה
סאתים
##בשים
לבחינת
##שאת
תפילה
לשאלה
##חמים
נפלאות
מהר"ר
הל"ל
דידי
יודה
ואבד
ואמרי'
העומדים
##טען
ולהוציא
קדושי
מטי
צפ
המפורש
ובעי
כת'
##יחוד
##דריגה
יקראו
##ניך
ממ"נ
האונס
וטעמו
שדין
##הר
##סיות
נשארו
במדר
הרא"ה
שאמרתי
##שובו
כמפורש
חולץ
##ולכים
##לפע
מפורשת
והך
##נו'
וישא
גלגול
ור"א
תוסיף
שסיים
עוברים
נאבד
##דלות
התקבל
פשיט
ומים
נכנסו
הקבר
משפטים
דבהא
שהלוה
##לוץ
הגשם
שמבואר
ותנא
נקודה
יבואר
בחינה
בנדר
מלוג
בזה"ל
אצלה
##ופיה
ירוש'
והש"ך
##בם
המצרים
אח"ז
השמועה
תקיעה
##בורים
לתנא
נאם
##רי"ק
והגם
שהשיב
##וסת
יחטא
העיסה
תחתו
##יבין
פנוי
שערים
לזר
ת'
##עילא
דתרי
כירה
שמצד
דהי'
שמנו
והאמר
##קדשו
דידהו
וסייעתו
ילמד
ראיית
בדקה
להאיר
ד"מ
לאוס
אומנות
לפועל
##סקינן
יתרון
פורים
שונות
חסרה
השביעית
תופסין
מובא
##ידשה
והשת
##נני
המשך
במב
משבועה
גיטה
כרו
לקד
גברי
וטב
רך
##זלו
##שעה
ערל
הדעות
רחום
באמצ
הידוע
והאשה
העזרה
ביעור
##חיצות
נמסר
שפירשתי
##מדבר
נגדו
##כחות
מב'
אביהן
##יאשו
מגרש
שיקבל
קשים
הבדלה
וכח
סקילה
##נעה
##עדים
דעי
דתלמודא
לזכר
משכו
לאהרן
בהקדש
לבער
הלז
ונט
בגר
האבנים
דאדרבה
צרת
##צונה
##ושן
יומו
##ציץ
וגדולה
אנס
רשאין
הלה
תקלה
ומסתברא
וקט
##לתיה
מכן
קפיד
ולמי
מעכבין
השולחן
נשבעין
דסיפא
מתבאר
שנתח
דמגילה
בודקין
להלחם
דשבועות
##עק
וה"ק
וביו
בישוב
בשחרית
משנ
הענן
מטלטלי
ושות
את"ל
לשחיטה
בקדוש
אזלא
מזב
למנין
ודחי
נ"ו
דתו
ראשונות
מהניא
ומקום
בב"ר
##ערין
גרוע
הנאמר
שידעו
במטלטלין
תאות
מאב
##וקה
ובנת
לקחו
דבריך
הזוהר
נתרצה
נטלו
דמצות
שותף
במגילה
לנצח
שילך
##כתם
יחדיו
##יראה
ואשם
בבבא
הקליפה
האויר
חננאל
לצדקה
לאבד
האחין
א"ו
לעין
##פיסה
אורחא
המנונא
##לונית
שירד
למשנה
אגו
הרמז
דוא
בימין
שהעידו
נ"ג
ולכ
למעשר
לכות
בקיום
הארת
ועת
הדלת
רש"ל
הששי
וידעו
בילקוט
במנה
##שב"י
ותורה
אמונת
##ליקו
הול"ל
##מיענו
מורא
אלים
המאירי
##חקים
פרים
##דוף
לולי
בשלש
השבוע
בחלקו
דקדשה
עיניהם
##פוד
בחטאת
שה'
בירור
כוון
והרי"ף
שעם
טועה
ארישא
גמירי
##ר"ם
הגמור
וסמך
מקודש
עמוק
תהלים
נפרש
וימ
נשאל
ביתא
##פותיקי
הקליפות
ספרא
בשאין
ובשאר
דבריה
הפסול
תוש
יהרג
לכולי
##גומו
פלונית
פלשתים
בקרוב
חדשות
חשיבי
מחלה
בהיכל
מגלח
לאותה
וליתן
נהג
ויעשה
וממכר
הערות
דלפ
שיקנה
עשאה
##חרונים
לפירות
לתק
##ריגה
שהרא
דכשה
כדקתני
##ד"ם
ומזו
בהפך
מקבלת
תיקנו
שכנגדו
שחור
הטענה
בתוספת
לנת
מגופו
עמכם
אירוסין
תרגם
שלפניו
שהחיינו
הה"ד
שחרור
ונהי
כרע
באכילת
##ידושי
##קוף
שכב
החצי
לשמא
ובבבלי
דרכם
##פלתו
מנייהו
תכו
חזית
בניה
הולכת
מסתפק
דהיכי
הימנה
שהמש
בחל
התיקון
תשרי
וע"ד
להרג
התה
ביהודה
מזרע
##סרא
שנוטל
מכחיש
לעובד
מכתב
כההיא
חכמינו
##מסיק
עמא
בעובדא
להתחייב
לינשא
ישמח
במזונות
זרעך
והרע
דר"ח
לרגל
שו'
בעזה
שמגיע
לדמות
נ"ז
לההיא
הפועלים
נטו
לעדים
להזיק
וברכה
פניה
##סט
מהה
בר"מ
בלה
עינוי
החולץ
דכוונת
שיזכה
##דוני
הדק
בטעמא
דרחמנא
שתש
נשלם
##דישו
מדקדק
ארור
שנכנסו
##ירם
דהטעם
להכות
בתמיה
רחוקים
יון
##ידע
מעכבת
##יתום
בט"ז
נעשים
חששו
במראה
##ינתי
חוזרין
המבוי
מלאים
ומסיים
בע"ד
הנשר
ואחרים
בנותן
מו"ה
עבדיו
עתי
אחז
ובכה"ג
המון
ופלי
##כרות
חייל
ויורד
וספר
##טלטלים
תשלומי
דכות
##ילם
##מחין
שבודאי
הקה
ודייק
##מום
וזהב
החתן
כמס
מנוחה
##נאתו
דסוכה
להבדיל
וברכת
חזו
##רוגינוס
וילדה
דוגמת
הכה
ומדוע
##עוררות
עסקי
ביחוד
ווי
##פורת
רמה
בכתובה
האלהית
ישיבה
דיק
הגזלן
בפ"ו
קדושות
.:
כגו
שעתה
בתולים
בעליה
במג
לברי
וכתבתי
משתעבד
נוסחא
תענוג
ישרים
תפלין
למנוע
מועלין
ויאכל
וסימן
##בדלה
המכר
##קוני
קאמרי
##מלי
##ישור
מתג
נשבר
יוצאת
להדדי
לא"י
ענוה
ונטל
מנהיג
##יבש
היצה"ר
קריאה
להוציאה
נחשבים
מפיק
המברך
זוג
שיתנו
דכא
והדין
תאנים
##יראים
שהכ
בעפר
החרי
בכס
וישר
ללבוש
וטור
דרוש
חופ
דסברי
דמלכא
ואכלת
דאסר
שיעלה
##פקע
לגי
ושלש
שיבואו
חרו
כתם
דר"נ
מבושל
שומא
ולפנים
ונמצאו
הש"ץ
אפים
גובין
הנפשות
דטעם
##חבר
ויוסף
##מו'
מההוא
אושע
מחיה
ומקשים
אתך
##כחו
ערבי
הבנות
חילו
גג
שרואה
סיד
##זהרות
מראית
מפורסם
דלכ"ע
הבינו
ריבית
צאת
##עלי
מאותה
בלח
ששאל
דיהיב
עגלה
דדר
בחמץ
קיימו
##שהה
ובשל
משבת
פנויה
למלאות
כדפירש
פיגול
יבמתו
תירצו
הגזירה
שבנ
קנוי
הרדב"ז
##פללו
##לחין
בצפון
נדרה
##רוסה
##פשות
בספ
שיכתוב
הדחה
שלושה
חטין
מעלמא
קרום
ובאה
מוח
##ברוח
לפרעה
##ילתה
מיכן
רוחו
דימי
להעל
##ובש
עושר
##דעים
החיה
##חלב
רשו
ושכר
הארצות
דדרשינן
היטיב
##כמות
בקצרה
רובע
שבשעת
דאזיל
רה"ר
שמתוך
ויור
סריס
עמרם
##דרו
הקריאה
##ברי'
דקרי
השלמים
הקדמונים
וארבע
באפי
וגי
##זרין
בנר
הצדק
המוסר
שפתי
ותהי
וברייתא
מוחין
להיותו
?!
פקח
##מירת
חלול
ותהיה
ודמי
דסתמא
מהראוי
פרעתיך
ועקר
בחסד
עשירי
עמדה
##כתן
בבתי
בדוחק
כרש"י
להתירו
ולפני
מיימו
בס"פ
מכור
אינהו
השיבו
דהלכות
בר"ח
כסברת
מחייבין
איריא
ידיעת
##ליכה
##וליכו
##זוז
שחלק
##ב"ה
וקאי
לסבול
פעולת
וכאלו
גזרת
מלפניו
ברורים
##ונב
ושמחה
ומתרץ
דדייק
בארעא
מעיקרו
האסורים
היכר
קצוב
הזר
##שנה
חוצ
ומסתמא
להקדיש
צבע
התחלה
בחרב
##נבו
אגד
לרחוץ
יחיה
##ורן
לחטא
יבאו
לקראת
##עודת
##קשויי
להשה
שעושים
יצ"ו
הנזק
ומבטל
חתם
רושם
במעשיו
ויעשו
##טוט
דשמעתין
ורביה
יתק
המלוכה
ראויין
ועיר
##נאים
##כוונו
וכולה
שנשאת
שהור
מדאמר
##גלת
המערב
ארך
רגלו
מקדם
חוטין
לתלמיד
##בחין
מוסיפין
##דרינן
בהגהת
כנס
לר"ת
שיכנס
לגזור
המובחר
קנסא
דהתורה
זבין
דהתוס'
מחבר
##ניע
שנתי
מארי
החשבון
ונרא
תרצה
המחנה
התפילין
דב"ק
##זקי
מדמה
במיגו
##דף
שמורה
כד"א
ששחט
לעשותה
רמ"ח
מילין
חשיבא
מראות
הצדדים
להמית
בשש
המוח
צ"ה
שהובא
דאיצטריך
תקרא
שלב
##פשטה
מרכבה
יצירה
למאכל
##ס"ד
##יקור
חטה
הרשב"ם
תחל
מארבע
נתגלה
הנוסחא
ראשה
בצ"ע
אסיק
ר"ס
##קעה
בביצה
זור
האמורה
##משת
בארבע
עומר
וחדא
מאתמול
ואכלו
כליל
##ביצה
##עילת
מבע"י
דאיהי
##חוקים
בהרבה
פנימי
שנין
בשפת
בא"ח
מחזקת
שעקר
רחם
ביי
מי'
משלים
בתור
ושאל
שנגע
ואחריו
אורו
בקנס
בכולן
העבר
נתגרשה
הנתינה
עשב
לאקשויי
##חז"ל
למחנה
##לקלו
שומן
ול"ש
מרבנן
העיון
וקמ"ל
הקנאה
שמלא
10
##נשו
##גלין
ולע"ד
זעירא
בהמשך
העשיר
בספינה
יאר
ובאר
באמונה
נזקקין
נתא
##ומה
הר"א
ממשעבדי
נבאר
לפסח
שופטים
משלה
יתא
##צוק
נוחלין
גבורות
וצו
הטעמים
שהכוונה
הנכבד
בזהר
נמחק
ניתנו
שמצוה
עכשו
נכבד
ענן
הפנימית
בדפוס
##צוצות
לכנוס
מפרק
כוונתם
מהתורה
והמחבר
שהשי"ת
בתפילין
שתצא
נגר
לירד
דינרין
התאוה
וכוונתו
החיצונים
האחים
דב"ש
בר"ן
האחרת
##פיקו
מוכרחים
נוב
ידועים
לצי
##פלי
##קמינן
בשמות
עבודות
כיסוי
דסוטה
מנס
פשיעה
אבני
שטעה
וחול
שטרו
ב"נ
לעול
התינוק
ימותו
כבת
וסתם
טול
לשונם
חשיבות
בכולה
ור"מ
עמדי
בידיה
בלע"ז
##עתיד
לסברת
נבעלה
##לוים
דאטו
##שתות
החרם
ומורה
תמרים
##טעי
##קדשים
הקדרה
##ריים
יכל
##אב
הזאה
##גרות
משתה
קהלת
עונשין
פאר
##ב"ח
שהזכר
תשובות
##ובת
כתובת
##בעות
יחשוב
אינך
דכתבו
החובל
לעוה"ב
מתרו
כפיו
דאבא
##מיהן
באינו
דבן
מק"ו
מדרס
ממתניתין
דרשות
שפירושו
ומיו
אונק
אמרן
שתפס
מפסוק
##דימה
בקטן
##בודתו
שטוען
##זרתי
אהב
בצונן
שכמו
החולה
הטבילה
סכך
שמבאר
שיפ
מדם
דבכורות
שנחלקו
פגום
##יית
ורואה
להתנות
כחדא
דממילא
חסרו
לירא
דקסבר
מקוב
אפוטרופוס
מחלל
לקרב
ויפ
הבה"ג
תולדה
הסוכות
וסופו
ישלח
בזול
תועבה
וכאילו
##עתק
ופלוני
כמשמעו
דפרי
נענש
##ושטא
הנער
דנפקא
הופ
קנים
באלף
דלרבנן
##חותו
דוה
מבורר
לידיה
וגדול
ופי
ובענין
ובתוספתא
המגיע
ערכין
האבל
הגיה
דק"ל
במעי
נראית
דלר'
גן
ואכתי
מדתו
דדילמא
גלה
הסלע
##צוץ
הבהמות
וחסד
אבה
ומינה
בגזל
ולמע
אלפי
חייך
וכענין
ונקט
מיין
בעמ
בהמת
מלע
הזורק
דתנאי
במשכן
דפי'
בחור
ארצות
השעבוד
הכניסה
שנס
וי"מ
##יתכן
סמוכים
באדר
לער
נדע
בעבר
שישא
הרביעית
רודף
שאירע
אדומה
מאמינים
דא"י
במנ
בארבעה
הרגו
כהרמב"ם
דנזיר
הי"א
דכולי
בדינא
שיחזור
צדדין
ללמדנו
##ביריו
ובתר
##ענוג
הר'
ידיך
משונה
הדרכים
עירובו
בבוקר
ומעשרות
הנסים
וביד
##פום
##עדר
עזריה
##חוה
לבוד
יכולת
גני
בעודו
מאמין
ממצות
לאויר
לבעלי
נבוכדנצר
טבול
להרע
השלשה
לצור
עזים
בנתיב
איכה
מתכות
צרכיו
דסת
בפו
המחברים
שן
##טהרו
ופעם
לסדר
ויקחו
זולתי
##ספין
עשויה
האילנות
שאה
מאלה
##".
תמו
מהימנא
בעדי
זוטרא
בקודש
כוללת
הקטרת
נגעים
##בירים
נרא'
בשותפות
##חתי
מהר"מ
##ערת
לכבודו
וידו
סני
בחודש
דלש
דחזקה
ודעתו
רבקה
מקיף
אפש
ק"ד
טהורין
##פשה
שימ
ונתנה
בשאינו
אלפסי
ירב
שמפני
יפתח
ומה"ט
כסתם
כרמלית
שולט
לכולם
מעשרות
בערכין
לפרוש
מעשיך
נתקדשה
החסרון
##יומו
שהשו
שנאה
התבשיל
עו"ג
מסק
ושתיה
מיית
הסיבה
לרמז
דבפ
ידעה
שליחותו
אנה
ק"י
ומלת
ומתני'
בעון
אהי
בנוי
##בריך
וכשהוא
וצוה
תשמע
דמאחר
תרע
המשו
מזוי
##מינה
במבוי
שזכרנו
אקרי
##מצו
שנודע
סור
##כיהם
בטלית
##וחר
האמתי
המספר
טיט
העניים
זרק
##מודו
##יאים
תאחר
הרב"י
מיוחדים
הדיוטות
לכה
##גדו
אייתי
ברצונו
כונה
הוראת
##בראשית
ושבע
בעדו
סילוק
##כירת
ועיי"ש
העוסק
חולצת
שמשת
אחריך
התענית
צואה
קבעו
מפל
דמלא
ויהא
נמנע
שכיחי
יומי
שנח
החתיכה
ולפע"ד
העריות
הכריע
לקבלה
הסוג
##רש"ל
מכין
יכוין
##כז
##צי'
הלקוחות
פרנסה
לתא
##קדם
אבלות
ברא"ש
ושתים
למערב
לכמה
סמכו
לחתום
בדדמי
להתירה
חשובים
רופא
התהו
ותנו
השופר
##אתו
דנפשיה
עירב
ונודע
מכזית
טהר
דמספקא
בעא
חלום
החש
השלימות
מחמיר
להתבונן
שבחו
קבורה
שבמקום
מדותיו
##עביד
##בודו
הסבר
אשתי
דא"ר
בסעי'
לשלום
דמשת
ישובו
יפס
שמם
באורייתא
מהפ
ששל
ופסול
האבר
רבתי
לב"ש
שהוצרך
##צוי
##נוכה
הקצה
##וסים
##צתי
הז'
ק"ה
פי"ב
יוחאי
פותחין
מעני
בבאר
ממעשה
##דוקדק
דנקיט
##מיהו
והלה
היורשין
מגדל
בעילת
משח
בשגגה
גנאי
##דיו
לפ'
לגל
יתו
##ותך
טפל
מפ'
##חהו
סבת
בקבר
מכניס
הנחת
יקריב
והעיקר
ופסקו
הקרוב
שהולך
הגעלה
המוצא
##זיקין
בעזרת
מעיין
מחוי
ורבה
שעולה
##קלל
קביעות
הסימנים
##עבדו
##נסין
עוברת
כשעת
מעל"ע
אזהרת
מבשל
הזי
החוטא
יתקיים
שמעתא
בנוגע
דאלמא
ואגב
הגי'
להתקיים
וצריכה
##גרא
##מימות
וע"פ
##תיכות
אי"ה
הספיק
הארי
המיעוט
וביותר
נערות
שהמים
בתפארת
מכלי
מצויין
לדי
לאית
לוחות
##גודה
המעלות
##פקיר
הכחות
##חזקה
משוה
שכוונתו
הכניס
האלמנה
בהיותם
להכריע
עסוק
לאין
##er
יחסר
וכשר
והלאה
וקדוש
##סכת
דמנ
טרפות
לתקוע
ולר'
##פילת
ותפלה
סתומה
במשיכה
בציבור
##פרסם
מקריב
והאדם
##חקת
הלימוד
מכ"מ
ויוציא
##מיכה
במשך
דגרמי
יפסיד
נגמרה
לעשר
בפ"ז
תפילת
לאחריו
זקוק
ובמע
ונקבה
הקשר
בגמר
בעניני
והנכון
הזבח
המדיר
רה"י
להשכיר
יפת
ההשגחה
ויני
נדרש
נודר
ששב
##למנה
דנש
בינונית
##מלה
אושעיא
##גיר
באצבע
איקרי
שרצו
מימיו
פירשתי
צדוק
שפירש"י
##חויב
הריוח
שואלים
וממנו
העמיד
מאידך
ור"ע
לראיה
תשיב
בסקילה
דמלכות
שבע"פ
ימינו
דב"ב
##טרג
קצבה
נצטוו
האז
פעול
##ר"ל
פנאי
שהתירו
שהוסיף
צ"ו
לקוחות
הרהור
כבן
באברהם
ברגליו
מאיש
בהדיה
מאביו
הריהו
הנוה
לאשר
מורידין
תיובתא
שמב
##שותו
ימצאו
##כ"ת
בקדרה
מתרי
הפסיק
בושת
##נ"ח
דרכיו
ובנתיב
בנא
הכרת
כסוי
דאתמר
וצריכין
ובעבור
##ספו
תנחומא
ולפענ"ד
בשמא
חציצה
דארעא
נק'
חמיו
##ודית
יגיד
מכשירין
ונתע
בשבועת
וכשי
מידה
ויראו
והור
הבכורה
העק
וחשב
רוצח
כדקאמר
שארי
ויחזור
השנייה
##טמאה
בתריה
יענה
שתות
וכמש"ל
בעזה"י
נתון
דיחיד
כבית
והלכו
זכיתי
דמכל
אבאר
וקי
יצה"ר
בפעל
אחדות
מג"א
ליוסף
פרץ
כותים
##דעתי
צרעת
ההס
לישני
שרמז
שהשיג
הערוה
##קהל
צדדים
סטרא
##ע'
לדירה
להאכיל
11
##פסי
שרינן
גולה
##קוק
מונין
לדידי
דמנחות
בצירוף
##ראלי
##תיחה
מלאו
יפלו
ומדלא
ביטוי
והב'
דלכתחלה
דלו
שהבין
בדמי
שנותנין
זיבה
מצותו
שיראו
ישמעו
לשעה
##יר'
הפעם
קיימים
דשאר
עמון
הלולב
ע"ט
##יבעיא
##יבעי
החסיד
##צף
הקרובים
אר"י
דעירובין
לרמב"ם
נשוי
הבאתי
##נז
בה"א
לעיקר
דרכה
דרבים
כמשפט
כשהיו
זבחי
אכס
ההולך
המחייב
ורמז
דמית
##סרים
שרצים
קלו
##ודק
פתחו
ליבום
צ"א
יאשיה
נדמה
אלך
למיעבד
##סאות
הוקשה
השרים
המשחה
ישתה
רקיע
##ברתיו
ביעקב
ליתני
רגילין
הוסיפו
והעל
השירה
צ"ט
באס
פוק
##ותיהם
ביקש
לעמו
ויו"ט
קניא
##וסס
דרכן
ודילמא
הוז
##ושש
חסידות
נכנסים
וחיה
שתע
שחולק
ימכר
האומרים
##דימו
רישיה
##טך
ומתח
ש"ץ
כתי'
שלוחי
ובגו
חזקתו
##יבורו
בנוסח
פגי
##חמו
הכס
משביעין
דהדר
ואמרתי
שצריכה
##כבי
החוט
##נפים
מבור
ישים
זוכר
כפרש"י
לשבועה
שגר
##ונתן
כנעני
הר"ז
החזק
הכבש
חומרי
##ורשין
המעשרות
##נהגו
טענינן
דשלא
משנים
נמצאים
גוז
מלין
##פרשה
דרגא
מחללין
אשמעינן
ומצאו
באותיות
,,
כפים
רבעי
וגובה
##ציצה
חוזרים
מבעלה
שבתוכו
גליות
רבר
##שוש
##דיקי
העירוב
בכולהו
מורים
מאדם
ואליבא
ונשמע
להפסיד
##רבין
האת
דמחלק
לגופה
הפריש
נגזר
חורבן
דאדרבא
חתימת
טיר
חייבות
במחנה
ירקות
ר"ן
##תוי"ט
לכב
יושבת
בפשיעה
עמם
ללאו
ואפלו
וכעת
שא"ל
אחיות
לטובת
וליתא
זימנא
נקוב
הקודמים
##שבעין
##שימה
אפטרו
זוטא
##טמאו
מבקשים
קלות
##פנות
והגיע
והב"ד
מכוסה
##כניסה
שטען
ישע
משקר
##יענו
לפנות
##בורא
##משין
הסמוכה
##כ"י
בהון
##גנון
##זבול
החולקים
הקילו
שביק
ודק
נקבע
ועיי'
רותח
##דוקים
עדת
נתיב
דיצא
שחסר
מברי
בהמ
ולבו
שנמשך
##עושה
יחלוקו
##תוסף
מתבטל
##גח
##ננים
לסלקו
הקטורת
##פוטרו
באיסורי
לתב
להסתכל
מחלוק
אפוא
צרכו
לאפות
##חומין
לשאת
מסלק
קידושי
שפסקו
ידינו
השכירות
מעולה
עוברין
חוה
סעד
בהערה
חו"מ
ויצחק
בזמ
לישן
דמיה
בגלל
וצדק
נפרע
צמח
זכתה
בקנה
בגוים
טעמיה
יורשין
לרה"ר
ופק
קלקול
חפצא
המוד
ובדר
ודבש
פסולת
ואברהם
מחברו
אזלי
המשכיר
##ד"א
ושיעור
הזיק
תערובות
##נדב
בקצת
פינ
השורש
לקול
אורייתא
##ריבה
דהנ
לזכור
לכופו
הועיל
ששני
דלתות
הוי'
הוב
##עדו
שבטי
שנמש
הקדירה
התחום
מתני
מדיני
דמשה
אליכם
שאיסור
בכורי
בהשגות
יסודות
עוה"ז
קיל
כדכתב
מבה
בצורת
לעצמן
להזהר
בשבוע
הורו
השעיר
לשעבר
##כימים
בוגרת
לרבותא
טהורות
לזאת
קציר
נקו
הנפקד
בעולמו
השיגו
ברה"י
אלישע
להשי"ת
הכלה
ופ'
מאמרם
האירוסין
הרצו
אוסרים
סק"א
##ישבו
אלינו
וישם
ך'
##פטי
כאביי
##מ"ט
ואכ
ליצחק
אורות
מתניתא
##טהורה
דמז
##חרש
מולי
ברזא
##כולן
מיפר
וז"א
נהפך
דומים
להשפיע
שיט
##ע"ג
##זרות
ול"ד
החומה
##קופת
כהאי
מתוקן
##ירושלם
כשמש
חלבו
וארבעה
בצלאל
ואוק
החופה
קדרה
##מדם
##תיקו
וחזק
פיך
ובלשון
מברכים
לחצאין
חסידים
רגילים
הישן
דידוע
העלם
חזיר
במין
במשה
##לויי
בדרישה
הכנע
יראים
כמים
בעניות
ונר
לשכור
למיכל
יחס
קללה
פוטרת
בטוח
צ"ח
##טיא
שהטעם
הדיינין
דגרסי
דאר
דאתו
לגביה
##ב"ן
אוצר
בבוא
דחול
שהחזיק
מידם
כתו
אמרם
##קטיר
שהעיד
שפירשנו
ושור
תקרה
טהרת
סמ"ג
בטענה
עורות
וב"י
שתירץ
שפטור
##חילתו
##ושי'
שיטתו
משים
מחד
##מדות
אע"ה
מקדשי
הזקנים
ש"א
הגורם
##צוצרות
ומוקי
##ותייהו
מתעסק
מקובצת
העמדה
##בנה
בפ"ח
##שאל
יקרב
נשרף
שסתם
##כוהו
שנמ
מרור
חתו
##גבה
במקוה
##חוו
סומא
שכותבין
לממון
ובתוך
דגמ'
ודוד
עומק
השלמה
וכיצד
##עית
החלו
החמישי
צרור
##דיר
להשאיל
ואנא
##ודיעו
הארה
דבפרק
מצרימה
##ייש
המכוון
ספירות
דעדי
נדב
השלמות
משפיע
שעבד
מסוף
קדים
לאס
חציה
מפסיקין
בסתמא
לשבע
השקר
הה"מ
ולהבא
חמר
שמרו
המסקנא
שכם
החליצה
חברתה
##תבח
מדברת
##פיא
דממ
אמתני'
ואסיקנא
הקפי
נשחט
ביבש
גיל
פירכא
שחוק
השגה
שאח"כ
וזק
הגזילה
נקנית
##פטיר
ובהיות
שראתה
ה"ו
טעונה
חזן
יקו
לטלטלו
כפת
צה
באמירה
אוסרת
שאסרו
ק"א
##נוהו
במדות
שביתת
פתאום
הכחשה
לגלח
בחשבון
שמ"ש
בנחת
התכלת
רשותו
נוספת
##עיס
הפרטים
יימר
חצרות
פושע
##שיתי
להצילו
##חלף
הדת
וזכה
חזיא
נראים
דנפק
בציר
חטאים
בדיקת
התלמיד
כאב
שרג
"'
האמינו
לגב
צריכי
תבעו
##סקי
שרים
##דיח
והוו
זוממין
##טיה
חנן
דייני
מוריש
מתחילין
סרו
תבל
הנזיר
יבטל
ויטול
ומהו
ארם
תבלין
לעשו
דלעילא
מנכסיו
##קולא
מנעל
ביומו
אונקלוס
וטר
שא"כ
לימים
בקרבנות
ביתי
מגוף
##פורן
ועבודה
שכינתו
למדינת
לפקפק
שהזיק
בספרא
דשמיא
ישרה
דאפ"ה
לביאה
שמניח
##ערו
והמטיב
דצ"ל
לת"ק
אמצע
מפה
עקירה
מרובים
הכתר
וכלה
##מהר
וחזרו
גזירות
ע"ו
לא'
דיום
בעסק
מדכתב
תיקו
סד"א
##פידים
לפתח
בקטנה
עבה"ט
נגעו
והראיה
##נגול
בכולו
שתאמר
##דיוט
איסר
ומתר
והנו
מהול
דחק
כללות
יחדו
תמימה
##לויה
בשמאל
בנשים
שחין
ועכ"ז
כופ
בעית
ואמה
ממד
מנכסים
משפחות
מחמירין
הזרוע
שבאותו
הכהונה
##פריך
##ינינן
ורצו
##חבה
##והב
רוחא
שהעולם
גנו
שלמטה
ובעת
פירותיו
בלבם
ללמדך
ניל
דאומר
כת"י
##ענה
דאוק
כנסיות
עזאי
סורר
בביא
יחר
הנץ
וכב
המטלטלין
שתר
בבריא
שהקש
התפשטות
דאמרה
שחוזר
ומשי
משמו
##דונו
מתנהג
דשניהם
דנעשה
הטי
מהתם
אישה
בחלום
פוסלין
קצו
שזינתה
לבטלו
ליתנו
א"ב
ולצ
הסר
כדאית
##חשך
ויביא
טז
שהמת
עדיו
הערל
י"ו
##מותה
##בעים
שקד
דלדידיה
להחזירו
סוגי
האלהי
נבוא
המקדיש
בנמצא
וצדיק
סמוכה
אדה"ר
להכחיש
בתמורה
האמצע
בשכל
##פופרת
הפרשיות
השליש
דמצינו
סיוע
פודין
ריאה
##יבורי
למדים
ודלמא
עלייה
ועצ
הריח
למיפרך
ונפטר
העצה
דקנה
##לענ"ד
סק"ב
דדרך
ימש
ומחזיר
ההפסד
הערלה
מוה'
קובע
במטה
שמתי
וקתני
למרות
מרשותו
##רגו
שכ"כ
שכלי
רשב"י
זוה
חומץ
קולות
היו"ד
כהלכה
בס"ת
בתשובות
ושתה
יציאה
מועטת
##כ"ה
ובמו
הבלתי
שאבד
##מזבח
מצטער
בקצה
##וסקין
##מורות
טרף
סאין
בסה
הציצית
וביאור
פריה
##לימה
טבח
סמיך
##יבול
מתכת
מסוג
מכבד
חוששת
דבעלמא
כדכתיבנא
האברים
##ביך
##פסת
הכש
הפטור
שבצ
לאידך
לאומרו
##שלמה
מדרגה
בתפלת
החסדים
##ולכה
ומפר
חמישי
ה"ח
שוכר
##רובין
זקוקה
##רויח
##טביל
##כאל
הקבוע
מאריך
תפלות
באמצעות
##טרך
והוצרך
משול
##חמץ
##פורי
הזמה
וההוא
##פחד
הרבנים
מרחיק
##גהות
ולוה
דמלוה
ופתח
שנקראת
דפו
לנד
במפורש
זקנה
תנאה
##זהרו
החלון
דקני
מעם
##יוון
לעבר
בגדול
ואכלה
השקל
נאמנין
חובות
תביעה
בחו"ל
גפן
מ"ם
נחתם
בדורות
איפוא
אלקינו
ולאפוקי
למלאכה
ואנשי
הילד
דלר"י
לכלבים
בטיט
המניח
##תילה
יהו"ה
ובלילה
ש"פ
האהל
הנ"י
##טריף
טבעי
##וד'
ברפ
##וארו
וא"י
##יתין
להוליד
יאות
שמחמת
סותרים
וקיי"ל
דבלאו
משו"ה
פוחת
שפתים
באתרא
12
לזרוק
##רוגרות
ק"ח
מבת
שיתחייב
דחזינן
תינוקות
התועלת
דדם
בקריאת
בשבט
##קדשת
תינח
ומטמא
דנדה
יקיים
##גמה
במתנת
##רי"ט
ונגד
הדמיון
נקל
שקנו
השרץ
רחמי
##תפו
לשדה
א"ד
ככול
##טט
ומנהג
פורתא
אסיפא
ישכח
שנפר
החלה
אדנ"י
##נונים
ערבות
מוקף
חתיכת
ערבה
##איכא
התלמידים
אורחים
לר"ל
כתיבי
בצורה
הדרי
האמיתי
קומץ
השטרות
13
הרגלים
קאמרינן
פנימית
##פרעון
הרגיל
כוותי'
וצי
ובהמה
סבא
##נעו
בפרי
פיסקא
בחזרה
מעומד
הסכנה
תשמור
ריקם
בנט
יושבין
מדריגה
שרבי
##קעו
דורו
נמנה
##ידהו
השמר
וצדקה
##דרא
אחותה
הנולד
אשתכח
##יתון
נאות
ובשם
מבו
בז'
תרי"ג
לנפשיה
תמורת
ואתח
השירים
אמרין
הסיר
אפשרות
ולמחר
שא"י
מחצית
במלאכת
עגול
##מחת
##קומן
מצאה
גבוהה
מתנ
היח
משמעון
כתנאי
עבדות
שנוהגין
שיטול
דיינים
שכלם
בפסקיו
בששים
באותם
דירושלמי
דבמת
לציון
סח
להכש
שבז
היוצאים
בצא
כרבה
צ"ג
להטות
בעודה
דכלים
כבוש
##ופנים
בכחו
מגולה
מחזיקין
באבן
##עירי
##קרן
לוקחין
עגו
##ש"ט
מצב
##סתיר
בצלם
גשם
והתח
כרצונו
הנהגת
הטל
ונשים
אלהיו
דחש
תשכח
העושר
##פטו
##וא'
דאמור
להלו
דעובר
לנשים
דמעשה
##דעתא
מאליה
מדוקדק
##פעה
האמה
בערוך
תשים
ולדות
להשמיענו
לאמצע
הקרא
##חוח
תו'
המפרש
דמ"ד
המראה
##ש"ע
סיחון
##כת'
##דרת
אתוון
בקשו
כיד
הדרשה
##כבר
דתק
בשו"ע
עובדים
מלחמת
לאוקמא
שמחל
דכלי
להחיות
בעשיית
השבועות
הפוסק
מעה
היודע
תמר
ותחת
ולק"מ
פגע
מתחלק
לקדושה
ללישנא
זכיה
מעבירין
ושותה
לאינ
האבד
פרסה
התרומות
##מחול
חמס
בעניין
שבשביל
מתרומה
דפריש
השיטה
ומביאו
ביתה
ונעלם
לרפואה
דנ"מ
זמנא
ע"ע
בלחש
מרד
רבוותא
שעובר
באמה
הלאוין
ומתי
##פסח
##געת
הנצ
לשומר
אל"ף
החורבן
אבותם
ציור
דעתא
וטהר
משניהם
שוג
ורש
בגליון
##משא
היהודי
##טעון
מכירת
שגזרו
בזר
##אלים
שאנחנו
מנע
##כסון
נהו
בשלח
העון
שלוח
שבשעה
עירובי
צורתו
יתבטל
יהודים
לכולהו
קמה
היפה
הנייר
מוציאה
שומעים
##יו'
בדרום
הקיום
יורדין
לשלשה
ויושב
מוצאי
ציד
קושטא
צ"ד
שפרש
איי
תפיסת
הטמאים
הרשאה
הפרעון
זכוכית
ובלא"ה
לעזר
דלע
שישלם
העולמים
גמול
שנגח
גמרינן
אסיר
וכדעת
בגו"א
פרוש
ועליהם
##דוקי
וקר
##עהו
כשמו
ומעשים
תקרי
הבדיקה
שיעורו
בחומש
##לקח
מדרגות
משרת
השטן
ברמז
חזרת
עיקרו
שישב
למסקנא
ורא"ש
שלקחו
שאובין
המכות
בבגדי
מרצה
פלוגת
שהפ
יצאת
יפלא
##כוה
נועם
כעיקר
משובח
##דעי
וה"מ
##מאס
כביצה
טבעו
##זהרים
מכסה
נמר
ואזי
##ידית
ומ"ה
יהונתן
המשתה
וקול
בכרת
##דיך
בפ"ט
שורות
כתבם
##חזקאל
הנקראת
##צלת
ולהע
חטאתי
##כובה
שמכרו
מקצתה
ביסוד
חלקם
תנינן
חלוקות
האנושי
לטעמא
ששמעו
##מ"ר
##חייבי
לפגם
רוכב
יחול
בחוצה
מוליד
##ידי'
וימצא
מפולש
##בורת
באוכל
בגלוי
להכין
דסמ
וכות
מקדי
לצמצם
שיוכלו
להשוות
שגו
##יונו
לתפוס
סיום
הבערה
מאותן
מטא
מאבות
##בוח
ויען
תעמוד
ב"פ
זבה
##מנתו
לפירש"י
רי"ו
##שכחן
מקלקל
דל"ת
במקומן
דיא
##בודות
רשאים
שלשון
מדור
וגרס
הכללי
ובטור
מקראי
ויבואו
שאיתא
בסלע
##נסים
עונג
הזכרת
שט"ח
לאכילת
משלמין
החיצונה
בחיוב
כשח
ודוחים
דיתמי
ויקם
בטילה
##לופי
בכריתות
הדומה
טלה
שיקח
בצער
מבעי
יגדל
##מכם
דפנות
המתנות
דמדינא
ודף
##נחריב
והב"ח
וניחא
ככלי
ושייך
למדה
ומש"כ
##שיע
המצה
ולגבי
ליהוי
לסתום
##ונתי
ששוה
מכולם
##סרון
מהירושלמי
לבבכם
חגי
##שינן
##כוש
במנהג
בנידון
כרחין
ולשיטת
בחליצה
##חמם
רוחני
ולמ"ד
קמאי
דאי'
באמו
רצונך
פעולות
וחכ"א
ע"ל
תשי
בלבוש
עא
שנפ
דממונא
שותפים
למתני'
מציעא
בלבי
ורמב"ם
ערופה
הטר
נצרך
ששון
לפדותו
כרתי
וש"מ
ממק
ונשאת
בהמ"ק
דרבו
דמש"ה
יכפר
שבים
הציל
שיעבור
נבנה
דעבר
פוסלת
יכב
בהיפך
והחי
ומתנה
עשרון
נטמאו
וכדת
ומלך
ומלח
ממשנה
ירבעם
##גולת
##מותי
בפיך
בוראו
עוסקים
לאז
הסכך
##מגם
##עבוד
ליראה
להנצל
הערים
הלידה
וחשיב
במילי
עולמית
].
##טרים
ביכורים
והתחיל
לחבריה
אישת
מחיל
דקדוק
שני'
##פוש
דבשאר
##יקרה
הכלב
ותח
ק"ב
שכינתא
ארכו
כספים
טבעת
אמירת
קדושתו
##כיא
פסקה
כשרין
##סופר
בואו
הלבן
הו"א
בכונה
השפל
##גישה
משניות
אשכנז
ההלל
אתרו
למזרח
חתמו
ושמרתם
שלפעמים
ראות
בקשה
הטבעי
יכיר
שודאי
בהעלם
היותם
לרשע
תוקף
ממשי
הדינין
העבדים
ובנות
ותמיה
נאנס
הודיעו
סגולה
הורא
יששכר
והאמת
##ח'
המזרח
ועושין
בפרש"י
מצותיו
ובספרי
חנניה
הנדחת
##משלה
הימין
הרבית
שרש"י
ה"י
ליגע
שדבריו
להתוס'
לולא
וחזרה
להקפיד
יוחסין
##קשן
מושב
ההוצאה
זרים
הקורה
ההנהגה
חושך
בחייה
שמדבר
שהלכו
לשור
מל"ת
לזרוע
דפירש
פירושים
מלפניך
הישועה
דגז
דילה
רעך
דשכיח
ושמעתי
להרגו
הטלית
אתנן
מוכנים
מומחין
דל"ל
עירבו
במוכר
לאיסורא
דוס
לקידושין
הקריבו
בראיה
גביו
אצלינו
בכוס
שחיט
דקו
ויתבאר
רצתה
##ולע
המנחות
שירדו
הגזול
בהקדמה
כפות
מיחה
עבדא
פתחים
##מיק
אבק
לכבד
וכנראה
מעצמם
משמט
וגמר
מימר
וחזקה
מוכרין
דסי
נחו
הצרה
ועובר
טובי
צלם
כתות
ומצינו
דוגמא
מלחמות
והחו
##והל
קריעה
הביטול
הצרות
ריבה
דקטן
מפניו
וקד
דכך
כט
##סטים
והמים
##שוק
ולדעתי
מחייבי
וכיו"ב
יחזרו
קומה
עשיה
ועבדים
הגורל
מקשים
והמרדכי
ההלואה
המהרש"א
וכדין
באבר
לחת
חסדך
מנגד
ירצו
וראובן
דבשבת
הרעב
השבט
אפותיקי
מרבו
במכות
לבונה
בהפ
ותל
בידיו
שדקדק
להשם
ירש
המצווה
באבות
וטוען
##פסה
כוליה
משות
החז
##בתם
דנק
אנפשיה
פתיל
הודאת
דאל"ה
דכוונתו
וכדכתיבנא
קיר
ובפני
איז
נאסרו
ימכור
לבש
בארוכה
נבא
לאנשי
ואיננו
שישבע
יודא
ברחמים
בזק
מונע
דמכות
זביד
לקל
גיטך
שאלתו
##שילין
##תק
והלב
ממקור
##סתרה
שתעשה
המצריים
##חנן
שיברך
##יתיך
הירח
המשפטים
הפירושים
הקמח
##שארים
שתראה
הנוסח
עמידה
ואסורה
נון
ולל
נוטלת
אוד
שוכב
נשאו
מאמרות
ובנה
וגל
שיצ
וקורין
שקורא
##חזקת
וקבלו
ברי'
לפרשו
פלוגתייהו
##שבח
באשתו
##וות
מבוארים
מהיכא
ונצ
שנעשית
ימנע
במאה
ישאל
בב"א
שערו
ויתנו
הנזכרת
##לקלה
קוראים
בקדירה
לאכלה
המחובר
סוכות
סעודתו
הדבק
הסכמת
מפקיע
הסוברים
שאחזו
שומרת
מכוונים
צח
שפה
נוצר
נפרד
מונחים
נמו
##ליץ
מסויים
נאסרת
שעכ"פ
שאמרת
המוחין
וכשנ
מרישא
ותמצא
ירושת
בשיע
מספי
עיירות
##כשרו
הנקראים
א"ז
##וששין
החלום
המערכה
בלחם
חריף
קטורת
דכהן
נגיעה
מיטמא
ימלא
שנקראו
טבא
להבחין
המלאכות
דטרי
ואידי
ליחיד
וימת
נוחה
שקראו
הואי
שלל
##כולהו
משלש
כרוב
בפ"י
לתכלית
עשות
הנדה
והרג
שסמך
מועטים
ואביו
דפסיק
בגובה
וקם
14
דכה"ג
כאיש
לברכת
אונן
לגדל
מוסב
ההעדר
ספינה
ובדרך
בסמ"ע
עוני
##גרשת
ממונה
דלתתא
מרוח
במכר
שכולו
בצע
ופרע
##נייה
מסרו
חקר
תחזור
##ראהו
לקיימה
ומעירים
באונסין
שורו
שנסתפק
דרבינא
דשתי
##פסקת
פשוטים
איבה
משכיל
מסדר
יבחר
מרום
דבגמרא
החמרי
יעמדו
וזב
תוכו
קרחה
שטח
גול
במ"ב
שבבית
שניות
שנתר
שראינו
יואב
##מדי
בושה
וי"ט
טמאות
אנת
מלוי
##עץ
##es
והכונה
##יבום
כנף
למהר
##דקאמר
חשד
לקוח
##ולקים
נעקר
סק"ג
מתפללין
##קומם
ופשט
לבתו
גבינה
בנהר
והיתר
המחמיר
##מידין
מדתנן
דבהמה
תשלום
מהרי"ט
משמרת
בזי
קדירה
כפרן
גרש
צב
והוש
שיחזיר
יאבד
רבונו
אתער
שיצטרך
הספרי
עשן
כינוי
והריטב"א
תשבע
למזונות
דחמץ
גומא
מצריך
הצעיר
בוש
בתשרי
ואיל
דאותו
קוץ
שמתחלה
לעצמם
שואלין
##דרות
לחולה
אנפין
##וקימתא
קפרא
##נינא
וממה
איידי
לקרוע
##סיח
מקובל
";
הקדמה
כמובא
בסיס
דרוסה
השתי
לשכר
הרוחני
השותפות
ומסר
ולפי'
לעשותם
ייע
##גאה
ומפ
דמדרבנן
דמלכותא
רומי
לכס
##קוס
למקוה
בחומר
נחלתו
##ב"ר
להחזירה
אתמול
##פרשת
דודי
יכיל
ספיקות
חמיר
חתום
להרמב"ן
הגלגל
וכוונת
##יתרא
##ציאתו
ועמדו
מדנ
בצרה
מיימוני
שלמי
ותן
אלמלא
ממדת
##טחון
קעביד
##צאו
בראוי
הסוד
סברה
ובתשובת
בגן
דידי'
בחמשה
##חמירו
שרף
מלשלם
זוב
עטרה
##חיצת
שכבת
בישא
תורתך
ולמאי
שנאסר
איפשיטא
במג"א
שברי
מרגלים
"..
מהר"ש
חירות
כ"פ
קשורה
תורף
השמיטה
והט
ובקש
בכ"ש
בצדקה
הגהות
בכתיבה
יפות
לזרים
מטות
##חיי
החולין
וז"פ
חי'
מופלג
שהמה
פרכינן
דנפיק
ובשו"ת
ארע
##מרין
בעכו"ם
מוריד
מיאון
##וייה
שתיה
שהכתוב
בתנחומא
לפירושו
ודב
אבימלך
לכו"ע
מסופר
גרושתו
א"מ
אלהיהם
ובעיקר
לפעול
היושב
בדאורייתא
##וך
להגביה
##מידים
הנמש
מד"ס
יצוה
קאתי
מקריבין
##מיח
לבדק
הפכים
מנח
טומאתו
שעליה
##ולדים
פסוקי
בעצמן
כאור
פוגם
סופה
והאו
והשם
דדלמא
##מטת
מעון
דל"מ
דחכמים
##יוקא
##לוד
בחליפין
ולתת
בקום
לסוכה
ודרש
וביה
ונפיק
ויחי
הזמנים
דשכי
השומרים
והנורא
משתות
ואצל
##ונתה
דפי
בחירה
שהעדים
נרג
##on
אוהל
דבעי'
לבריות
ליפרע
צרורות
חצירות
מחזקינן
##לפע"ד
ישראלים
קבלתי
שולחן
לויה
דוודאי
יקבלו
עוקר
ש"ר
מעבד
למהוי
אמך
נצב
עש"ך
##כנא
הרע"ב
אשמועינן
מסקינן
דפ"ק
העניין
והנני
לעל
מפע
מכילתא
##קבצו
##נקים
##נהר
##רוי
מראשית
גבורים
נתחייבו
קנאו
ובאי
מופת
ושמח
דרומית
שכוונת
בכרם
##שונם
ובדבר
דבודאי
לכף
בכי"ע
ובשלמא
##דומים
בחו"מ
מזכירין
בפיה
בקבלת
בכתבי
התערובות
ואוקימנא
המטבע
מפת
ההל
הוליד
הקטרה
ייתכן
לדייק
ופרי
ואביי
##פחתו
סם
מפליג
אורחיה
בטמא
ה"פ
שאחרי
עייל
סכנת
גחלים
סייג
ממכר
##נצ
כולכם
יע"א
וזמן
והניחו
כגוונא
15
##עורר
##קבץ
רבש"ע
##פית
ולכאן
ובארץ
בתרתי
דע"א
יקחו
שאלות
שכרן
בזב
מלבו
##טוע
סודר
הוכרח
ורגליו
##יהרא
##מידת
##ופל
מרדות
להקרבה
ומכרו
השמירה
מקחו
להרא
מהיות
ושאין
שביניהם
הגרים
החשש
מקץ
##מורים
##רוץ
שבירך
הנב
דראוי
קבועה
רץ
##ינור
דהנך
העברה
הגן
משתנה
למדרש
##כריח
הותרו
לטב
##גלא
##עף
דאקני
והשכל
במסירה
שהבאנו
תועיל
ונימא
מנוח
אוקימנא
רואות
וה"ר
שמשו
דשיל"מ
ידועה
שר"ל
המרגלים
חביר
דנפל
נמלך
ובגו"א
##מינהו
וארא
##ליטה
מדרכי
אריס
##וו
במזרח
ושכח
##פליא
נתונה
ועין
לעתים
##סורי
הגבוה
פרעו
דכולה
##פסול
אה"ע
נמשכים
גמרו
שבזמן
דמציעא
חביות
##פיות
מחת
זימני
לקיחה
עלך
במות
לעשותן
איתיה
בכבודו
הנישואין
למכרו
מחטא
##שובות
כספו
עוברי
ואתו
דבטל
ונפלו
שהוכיח
תלמידו
דתרומות
קודמין
##כנות
תענה
ערבים
דמסכת
בביטול
דיוצא
קן
קטרת
ש"ה
הכרע
לב"ח
##כניסו
ספרו
בירושלם
ומאה
##יימים
בבח
גזלה
האחדות
##מעטו
##ובדים
דרשב"ג
אבותי
מושך
טעונין
פנו
זצל
##תהפך
וחציו
לטרוף
וריש
שהזמן
התהום
מליח
בעיניה
שוו
לנא
ק"ג
לחט
##לותא
אדוניו
נילף
לחיוב
ופני
אגדה
בחוש
כדקא
בק"ש
##כנוס
והזכיר
לחוב
יזהר
ריה
המשא
כשלו
להתקרב
לאביה
מציאת
אחוזה
ת"י
משכח
דקמ"ל
בק"ו
בראשי
אתון
דגד
ערע
לאחת
והטוב
עלמין
ומעל
בשרי
פי"ג
פות
רחמ
סימון
וכהן
ומקשה
היציאה
##"פי
##מ"ו
דהה
המרחץ
מבדיל
בנבואה
חברי
הענוה
ויבוא
דאשכחן
ביע
הולכה
נמשכין
השיר
האומן
בשפתיו
תחלתו
במערב
הניחא
##ולט
ואצ"ל
ובכמה
ממשה
ימשך
##שיגו
מפירות
להיותם
##מעיט
ולך
הקנס
הלשונות
ועשיתם
העמידו
בינת
תקוה
ובמח
ברק
בלישנא
שנגמר
רחמיך
ויהיב
פוש
חטאתו
הפרטי
רמיא
##ברם
##פרשו
מאחרי
##גוע
בשק
דביקות
התעוררות
יצדק
ומושב
בהתורה
צידה
שבסוף
הגזל
לחכמה
שוכן
הצער
עובי
ובכי"ע
ומהי
פקודי
הכפל
ומקצת
פורענות
##נץ
##נכם
למינ
מחודש
הקדשה
משגיח
למחוק
וכדמ
הנית
##בעם
הוצאות
##דורי
דלרבי
כבני
שהוכח
להסביר
מ"ת
ורצונו
נחשת
אחרית
האצילות
טענו
יתום
והזה
##ושיות
שנבעלה
תקע
נעשין
ומלבד
נהוג
וכדתנן
לאמור
שכנגד
דרובא
תסור
נשתייר
דפסח
##רוצה
בחוב
וק"ו
הכף
##חדים
גדלו
בירושה
שלים
אה"נ
##סוכה
שהוציאו
בקדשי
דוסא
##ודד
לאוכלו
האויב
ניצוצות
בערי
מתגבר
דתרומה
לשרוף
לנחלה
מעכ"ת
נדות
דק"ק
מכבר
נחמני
זאב
##מטא
שהאב
יכו
קרית
אלול
תלכו
אחאב
לגדול
הודע
עוה"ב
יירש
המתא
##ילנא
ומנו
משורת
תאר
##חסין
להשיא
דרום
עניות
בפרישה
ברצו
##טעו
##נדרוגינוס
יולד
תקום
לעינים
לקחה
בגא
##זקק
תפו
שהותר
שמפורש
בדלי
החינוך
##דשות
מרחם
קשי'
כדמות
בקשת
שגור
ענני
שמיטה
והבל
יהנה
תשובתו
ומיושב
ירח
לזכרון
ושאלו
שכרה
מקילין
מלאכתן
##פסו
יעברו
טענתו
מסכימים
בטח
דליתיה
שייכים
דגו
ואלא
מר'
קדמאה
החלוק
שידו
מכירים
לכשת
בחכמת
שמיעה
גמילות
עלאין
להנות
מחולקים
##כובא
##קשר
פס'
ומתפלל
ללשון
וחומש
הצדדין
##קעת
ואקשינן
לעבדו
שעברה
18
##ינוקת
ובינה
העברי
שחטו
מצדו
יתחיל
ר"ט
בכף
בברית
בישיבה
מאכילין
##צפה
לאמו
ובדין
מהות
בב"ה
סברתו
מתייב
שופט
מתפרש
צווי
##ד'
##עיפים
##בשן
ביוצא
במקומם
בשמיני
ענף
שאיננו
דקדושה
גדלה
דכ"ש
והאיש
מגזרת
מרובין
תבן
הי"ב
איבעי
כחי
לחודש
תפול
מריבה
אמימר
גבו
##ב'
##ידוי
הנערה
בכורה
ק"ט
##__
ואותה
בפיהם
החרב
דחיי
קרה
##גרו
##מ"ך
למיכתב
##ינשא
לאורה
אופנים
השכיר
קדשך
##נעים
בתשמיש
יצטרכו
זמם
##בט
##מריה
הלואתו
ובשעה
סק"ד
דינרים
דהש"ס
ממרא
דאינן
שראובן
האמורים
בחבר
מרק
ואינון
מצויים
ומותרת
העינים
בחכמתו
ביחס
##חתום
מהרא"י
פודה
לבקר
דפרישית
בהור
נתקן
דתמורה
טרוד
זריקת
סתו
##en
ועני
הגזרה
בסברא
יגבה
##קלקל
היפוך
שמשמע
יגרש
ברוחב
ולאכול
איתתא
להביאו
אחיזה
צורות
שתהי'
נכנסה
##מלים
אב"ד
דמחמת
סכום
וענבים
טועם
דאנו
משנתינו
ואתחנן
שישאר
להתגבר
וסתה
פנה
הממונה
ישראלית
חללה
לדידהו
##ספים
המינין
##פרש"י
##חלות
אשיב
נו"ן
דפרע
עינא
במ"ר
לחליצה
ואיב
שהשמי
לוים
לבבל
להרשב"א
הפלגה
אול
המלמד
החלוקה
שגנב
שמיע
במלחמות
שארית
השערה
הנמשך
##כוך
תחיה
והט"ז
זהיר
שנויה
דאבוה
גופייהו
מסורת
הארוך
##בורתו
תוקעין
זצללה"ה
חידש
פנ
ובדיעבד
משלח
לחש
מקול
##לתך
השאלות
ארא
עיניה
שהמו
הויין
עולי
ויעל
בחבירו
וריב
##שיעי
הוצר
##כתיבת
תומו
פנימיות
##תארסה
שאוסר
הבאות
שילדה
שאב
דקי
ולימא
כשאדם
##דילו
כשית
##מקי
שעלו
וברש"י
ויליף
שקידש
שמתחיל
##רובה
נהרות
שיתפלל
לברוח
##קומי
##תיחת
בתחתונים
פרקין
##בושל
שנתערבו
כישראל
לילות
בשלהי
חדר
##גמו
והגב
מתגלה
בסופה
ליח
חתך
שלכך
וגא
דמשו
אמית
אכלתי
הפעולות
בהמ"ז
מתענין
ושכל
להקטיר
יודן
##צול
ובקר
בשילה
בארון
הזכות
מנורה
##פטרה
אריכות
תהום
בעניי
לאוסרה
גאל
סדרי
המדר
טומטום
חשיכה
פשרה
דהיו
דמתיר
מתפשט
דברתי
דאמרן
מלאת
דאינהו
אתנו
לעוף
שופך
כחד
שהאיסור
בתפלתו
דלמאי
בקבל
זביני
יכתבו
רפא
ול"ת
כמדובר
וראש
חפצו
סולם
בשריפה
בחדר
לדרום
חובל
ונאמן
קטל
##יומא
##גדלו
כמח
ומרן
או"ה
שירי
נטה
שהעלה
במ"מ
לרשעים
תשלח
הפנימיות
בינינו
לדיין
והתוספות
זבול
דמכשיר
שימור
דקודשא
וחותם
תכל
במצה
לח"מ
דר"פ
גיטי
שמעתתא
מעד
כיבוס
קדימה
##שועת
או"א
התירה
בעומק
מחאה
##עותיו
ובעלי
תחטא
הגיעני
הנותר
ונמשך
נתלה
יער
בקביעות
ח"ל
השדרה
בנצח
התירוץ
קראה
מזי
איתרע
כלאי
##רהור
ונתת
אוקימתא
זך
##תין
##וסקת
ותס
ממעשר
המל"מ
השכלי
והשיבו
##יליה
מגביה
יספיק
קב"ה
והעדים
הללויה
מרבי
דבדיעבד
הגבול
משיג
דנים
בשתיה
שלושים
בפסיק
השבעה
דמדברי
צפר
בכת"י
סלח
התקון
שומרי
כדמסיק
ובאותו
ומוכר
##חרור
שיפול
כותבים
חפצים
20
##מני'
בשטרי
הקן
בנושא
ופליגי
##נקי
לאנשים
ושש
חום
חטאנו
תלמידיו
וגדולי
לימי
ובתשו'
עניו
##פו'
ולשתות
דברה
##צהר
האישה
וכאמור
רחיצה
תבשילין
ברובא
שעבודא
כטעם
תתי
##שוף
התג
לשמר
כוכב
א"ת
שלמדו
הגדה
לשמע
פי"ד
יביאו
חינוך
##צטרי
##ותיות
ששנה
ויראת
ומראה
בימיו
נעבד
ובכ"מ
ולוקח
סנדל
וב"ש
בעם
כרך
זימנין
מטבילין
##ודשים
ורגלים
ולעו
הנהגה
ופגם
מזרחית
ונפקא
##וקים
ודורש
ולהא
##מאתו
שנתקדשה
מקומה
##ד"ק
##ותרו
ובאת
שיפרע
##ה"ב
שביום
הביעור
הנזירות
ונזכר
וחטאת
שנאמרו
ואח"ז
##רגמינן
דמג
חנוך
נולדו
המודר
גבאי
אדרב
החוזר
להדי'
וילכו
הערמה
צפונית
האשם
מקט
דר"ג
דתליא
דוב
הדג
שישנו
משוך
##ויח
שנתו
דעכשיו
מדר'
קובעת
ריא
אלילים
דיותר
מקיימין
ק"ז
ובשב
בתירא
גורל
##ק'
דפוס
צוו
שירא
האולם
כשנים
דמשלם
מעשרים
##נקנים
בטרם
קצוצה
##ק"א
##לאת
עתידין
מתקיימת
ודאית
השמאל
כזב
ונז
ומשל
קצתם
וכשבא
סנ
וש"ע
ההג
העליה
לרשותו
דברת
הסנדל
##רעם
##קילו
הזכרים
במחשבתו
ספיקו
רכב
מתכוון
וסדר
פסקינן
##נשמה
לקשר
לשוא
שעשאו
המאורות
ובפ"ק
##ונין
##לושה
דמכ
ונפלה
לכבות
דיחוי
שיתא
מתירים
##כוח
פסקי
הטבעת
ומואב
למיה
יהוי
תוכן
קונו
ונעשו
דאינ
באמרם
מצור
בראיות
קומי
##פצו
ואק
בתו'
##כנין
השבי
יהוסף
ודווקא
ש"י
ראבי"ה
תרומתו
נזר
גדלות
שתתן
##פתן
והב"י
חנוני
נמשכת
השה
לסייע
להחליף
לוח
לפשוט
ופריק
ועי"ל
במיעוט
נתיישב
דלב
נתקדש
כגירסת
זימון
והותרה
מפחד
ועליה
והתיר
בשעריך
תעניות
בשטרות
להטיב
כנפים
רע"א
זרות
חלים
מהשם
ומפור
ובעלה
##מדנא
בינוני
לבדם
שכשה
ושמחת
ופרקינן
אחזקה
לחצי
שיחה
פסיקא
הפרישה
##ירותא
נדחק
התנועה
שנתבשל
16
ובתי
שתדע
בחתיכה
דרמי
ותראה
דיינינן
חטאתם
תתמה
כמבאר
ועפ"ז
ברכיה
לפ"ק
והבעל
שכאן
ריב"ל
שחטאו
בוקר
לירש
המתח
שמברך
עצום
ואומרת
##כ"ד
וכסף
שנמצאו
ישועה
מאשה
ומהאי
קדישין
לבבם
##רי"ל
לקדשה
למיעוטא
מאימתי
ורבותינו
גס
ובור
למנחה
##יימין
חולים
ד"ז
##ש"ה
התחייב
##יתהו
דמתקרי
במלך
רוחי
גלותא
לחזר
יבקש
המקנה
בשמע
מתקיף
##שיטה
הדס
מיי'
וכדמוכח
לטרוח
כאי
קשת
##רבים
החלל
חתנים
ששמעתי
מעורר
לחשוש
בכולם
חזקיהו
דבגמ'
ישחוט
המצוי
ואכמ"ל
##לית
שבישראל
נקבות
##ערים
##תיח
דג'
שחכמים
אגרא
שהפק
חיותו
צדקו
##ברכות
##דוניא
וק'
וחז
לתן
פח
שאכתוב
עצת
קט"ו
מפרשי
##כרית
##ולתם
הה"א
נפתלי
שעי"ז
המאה
ודרשינן
תער
בהנך
שמדובר
מקשינן
##ירוצו
##טורי
שנתגייר
לאשתי
דהרשב"א
##סב
שעמדו
דכריתות
שנוגע
בשנ
בגבול
לתרום
לכבוש
יגלה
העבירות
שנפס
שדרכן
תכשיט
והחזיק
הככר
בנקב
הטמאה
קונין
##גאונים
המערער
פרנסתו
למראה
תמימים
##רידה
ומגו
שזוכה
##נוז
ראוהו
לכון
לאחוריו
דמשכחת
שוש
לפמש"כ
הסחורה
שזאת
באלמנה
והרש
בקבלה
דשטר
שהעתיק
##ממו
אוו
המוקדשין
סגיא
ולולי
יהל
לתלמודא
הנקודה
כ"ק
##זלה
אלם
מוצ
מימות
דאמרת
סובל
##תחוה
חדשיו
חלונות
הקצ
ומכח
##פרות
מדד
ממח
זוית
לפרט
כמז
השבה
בחש
הספירות
במילה
במילתא
שנותנים
בתשובותיו
מדריגת
לטו
ליהוה
##וסיפו
ומהר
זינתה
מפיהם
##סהו
תלוש
בתיקו
וקראו
המשתלח
עיבור
פב
כלות
ולכתוב
ושלשים
ככו
דאוסר
##פשטו
כחם
עקרה
דמעות
דכתי'
ובמסכת
בתבשיל
בלוקח
החמיר
וישוב
כשק
וסברא
ופליג
שיעקב
ארמי
בשכירות
הג"ה
וראתה
מדרשות
דאיש
בקושיא
הסוס
שגג
מוכחא
מניחים
צערא
בהז
דב'
הרז"ה
פרח
נשתמש
לשבעה
במצוות
מחק
פרשו
שנהנה
עושי
קרבו
מיכאל
דמה"ת
במדינת
קרבנותיו
ולרבנן
בקידוש
למיקם
##עה"ת
החלקים
הכעס
ציווי
##געו
שכת
ונלע"ד
המעט
שבערוה
ראוין
לעצמי
נמל
ימול
ביבמה
דאסורה
ב"
דחלה
##ניש
מחשש
שעשא
רום
דנשים
נבר
קופ
##פעת
לאותן
ביכול
תשמעו
##מחבר
רחמיו
תחום
היי
החזן
מפש
##ופם
נבלע
##נדרי
האוס
ועש
לפוס
לשכ
דמילה
יגאל
באיסורא
שעבודו
##כלך
החדשים
מחנות
תקנות
רי"ד
הברזל
חקת
דכ"ז
פוסקין
הנשארים
יהב
שמלת
ודינו
וקב
פטורות
מדרשא
סנחריב
כהני
ולהביא
ושאינו
פט"ו
סמוכין
שקונה
גנבה
לנט
כדאשכחן
פרישה
##סקו
האמנם
באכיל
##שותה
כמש"ש
ארום
שבטל
דב"ה
##בתר
תקינו
הושט
שהזכרנו
##חרו
לומ'
מגונה
##קוד
דבפ'
מסירת
וזכות
כוותייהו
למשמע
דאינם
הקש
והכר
##עתא
בועל
החשך
אבשלום
מסקנת
ששכח
פירקין
כדו
פרצוף
##בוני
ידות
שקלי
המרכבה
תלין
##כ"ו
הריב
התקינו
מכא
##מיתא
לחר
שבכללות
במרו
##כאה
יתיישב
בפירש"י
רגילה
וגבורה
בבמה
כסיל
מונחת
##תחזק
להתעסק
הידו
נלמוד
שי'
עלול
מסה
##קרות
סבורים
הבנתי
##בורו
ככולו
בהגב
##דשמואל
משמעו
המשפחה
##מירתו
חותמין
17
##in
בשיש
ציץ
אהי"ה
##פכים
##חייה
לנביא
לנפשו
כמראה
שטעם
והכתוב
המדמה
מצילין
שמכיר
לדא
כבשר
שאברהם
ושלמים
אמש
##מכה
לאבי
להוליך
ומפורש
מעיני
פליגא
קבעה
י"מ
##חריה
בשתים
חיזוק
והאחרונים
המונח
הציץ
לכותל
שמטמא
החזרתי
##טעות
וחסר
ופירות
ממעטינן
תיראו
הענבים
החיל
##כנסו
בדוק
שדומה
##ינוח
ובמת
שי"ל
המורים
נתמלא
מסל"ת
שיתר
##כנסת
דמפר
##זרחי
להתנהג
##זלזל
ירמיהו
ונתר
מחוברים
האמורי
אבלים
מערי
הספירה
דמוקמינן
שבינו
שמז
שמונים
שנמצאת
הדרש
סס
הגבורות
שעכשיו
קרנות
להכנס
מהרב
משער
די"א
אמתת
דמוכר
למיתב
לריעותא
ולחם
החומש
קניין
הקרבת
##קפה
ומלמד
הגירושין
דלשיטת
בעירוב
מעצמה
כשיו
דש"ס
לצפון
והנפש
מהר"א
וירדו
דבסמוך
טיב
##טוף
דל"ד
יתח
הצמר
##נגולים
בכתובתה
דעולא
חקי
מחוק
שבאדם
נטלה
ואהא
שהדברים
מקלט
נעי
תיר
ואך
ומרור
##סתה
כימי
הקשת
הה'
ויוכל
ואביה
זמנין
שאסורה
אביא
בכיס
ההיזק
סולת
##פילות
הנעלם
מתנתו
כנלע"ד
שיעמוד
ומוכרח
פתרון
ירידה
##פרם
##טהרת
לכ"ג
סתרי
לפרש"י
תפדה
צ"ז
תוכיח
שהייתי
לעשרה
לשפוך
שהקדים
הרחקה
הון
##נר
##שאלה
דממעט
פרת
להתקדש
אמ"ה
##געלה
שנוהגים
##צכם
שמכרה
דברי'
מחייבת
להשתדל
מאחור
ובנצח
ליא
נבלות
והכתיב
ומדה
בתיבת
שמזה
גוב
##יומי
שהשב
דאולי
##גלית
ונתחייב
דוי
כמד
כחה
נטר
##ושא
יהבינן
ומתניתין
בתראי
כשיר
נקבים
לתוכן
##תת
מנות
##דד
##יונים
אבדו
בקערה
אמ"ש
ולחו
דמקרי
ויחל
פרטים
שגזל
אמתניתין
חסרים
בארתי
קנסו
לתרוצי
##פרין
שבנה
הדגים
שעוסק
לרפא
פירא
האריכו
דמיהן
##דקד
לנגד
ושמאל
נכרית
מיקל
באמר
ונב
מתכו
פרוזבול
דלוקח
ציוה
תצוה
בדורו
מקצה
דסוגיא
הצור
לכלול
ומדת
למכר
ידמה
ומסבירים
העצמות
טוהר
מסיפא
האפשר
מהצ
הת"ח
מקדים
לדעתם
##פיהם
השינוי
ועלי
הס"ת
דעכו"ם
בספרות
בסיד
שמצות
כבודך
הטעות
שנבראו
שהגיד
למלקות
ברי"ף
זכרנו
שלכם
ובבית
ושעיר
בכשרות
מסוים
תעשון
בשיר
שבנו
הלזו
בבדיקה
מרומז
ביראה
ליהודה
וזי
הזהר
מאחרים
מכך
##נפת
##בירם
מיתוק
קדשנו
מורכב
סק"ה
מ"י
דקנין
פסלה
שתח
שזכו
נתעורר
לתוס'
לשכינה
הספיקות
כשיע
דזבין
בעה"ת
בהח
הכרה
נפרדים
נ"נ
אלכס
ילמדו
ולקחת
דאוריתא
זורע
##an
שהמע
בעז
מרובע
חית
מוא
ניי
ותפילין
העיבור
כתנא
אדבר
נגא
אלקיכם
שבקדושה
וזרק
שבתון
כדיל
לשלח
ומכו
ובהו
הנשבע
ודיו
טעי
בל"ת
דזי
זמנים
בהפסד
ולהי
##שירים
ומזלות
צורי
המכו
##זה"כ
בחבל
גונא
לבע"ח
שהייה
העלו
הנוד
וחש
נתעברה
דערכין
##גמת
##בררו
קרינא
סבות
קמ"א
ידידי
טובל
רמוז
##צבו
שאולה
אימר
המתפלל
קוצר
שדך
תשמישו
שסי
ישיבת
בחמה
דטומאה
ק"כ
##ינס
##מעה
##בערה
תירוצא
בכהנים
##טיו
##פרס
בשחיטת
הנבד
בדאיכא
והר"מ
יגרע
הבליעה
הלוא
##חתמו
מכבה
הצריכו
והבשר
עזה
משחית
הקץ
שעשתה
קי"ד
שיכולין
דתרווייהו
למנקט
המנה
בקה
נאים
שהתפלל
דרישה
שיחול
מתפללים
##צלה
##נאות
הזמנה
דחוי
ערוכה
מטומאת
לאמת
שהרבה
משיעור
מינך
מצטרפים
בולע
זצוק
שטות
והגר
##כתי'
מדרב
דמברך
תאנה
ולדידיה
##מימר
##והן
##שלומי
נורי
ש"ז
##ידתו
צדקת
ירוק
דאק
##תבשל
הרופא
ולהתפלל
בפרוטה
ימינך
ונעשית
רעי
ונורא
מחצי
##באים
דגל
ומשנה
נצטרך
במזבח
##ירן
דבזמן
שכופין
ושוק
סנה
##מאים
שנולדה
##נותם
ממחרת
יחשבו
לתועלת
בסור
ומנה
מסוד
לכתב
באה"ע
והיכן
##פכה
בדינר
##זקנים
אחריתא
יזיק
דבשר
נמנו
שמברכין
הקונטרס
המתחיל
והייתי
שבתוכה
קמו
ש"
##ירק
ואותן
ויצר
הסך
הפגם
טוענין
להשקות
הרוצח
גירש
נמוך
איפה
הרשב"ץ
החמי
בנ"ט
כשהא
להכעיס
ספיר
בהחלט
לבעליו
ביראת
ורובו
שנשאל
ח"ש
יאה
שחק
וקני
##חותה
מכתבו
בדרשה
זמני
יחלל
תרעו
##צירו
שלחנו
ועבדו
שלוחים
יחידים
ושאני
בעץ
במכירה
שיער
בשבעה
שיושב
הורג
וחיות
הנגזל
המכונה
הלשכה
##בער
הצואר
המהר"ל
דבדבר
שיטות
בל"י
יכנסו
מלשונו
יחיאל
והנלע"ד
ונותנים
והבאתי
אחותי
וב"ח
הייתם
הכשרים
כפולה
תנופה
מש"ס
##דונות
##ירוח
ידא
חכמות
תשמרו
למשפט
נצבים
זקנו
לינה
אובד
במיתת
דתענית
אחוז
דאוריי'
שלעולם
בממ
הנשבעין
##בעינן
##לביש
גידל
ועדים
ביבי
משבט
##וה"מ
וגב
לקב
בלחי
למוכרו
יזכו
טורף
ליורשו
נוי
בתלוש
שליט
מקצתן
דמסתבר
וטהור
לריב
לאחוז
אומרי'
ושמה
לקצר
שייכי
פינחס
ממטה
לתשמיש
מלמדין
לסימן
מתורץ
שמזכיר
יתמי
ופרש
סייעתא
המוטל
במש"כ
פתוחות
עשירית
ויציב
אמא
עטרת
תגלחת
בתורתו
##קדמה
כב"ש
אבותיהם
קצוות
שנשתנה
חוטי
יציל
לחברתה
##לוחית
לרקיע
המוחזק
מוצאים
זכייה
בסוגיין
זורק
צואר
קורע
דבכ
מעברין
דגופא
קי"ב
##גלאי
דאכל
דאחד
משטה
לחל
מכפרת
בשביעי
ופרכינן
ספרד
מוהר"ר
הביט
בנח
מערבית
במשנתינו
חזה
השלים
במזוזה
הקרום
ונכר
ורשב"א
ששכר
המצורע
באבל
כשיהיה
נאכלין
אשו
יפק
שחוט
הע"ה
לימות
מגי
העשירי
להוציאם
כקרקע
קהת
בורות
חלין
ויתפלל
וטבל
מהדורת
מתנגד
ששית
מיתיבי
בנתינת
והוציאו
פורש
המקיף
שימוש
שתמצא
ובאופן
תהלה
משו'
דאליבא
גאונים
לכוון
##זמו
בהעלות
הפש
מספיקא
גאולת
שעשית
שניים
גוזר
קי"ט
הראשו
ביציאת
ליתיה
ומבקש
כלאחר
גמיר
ואכיל
והרוח
דסליק
##מלו
ולמאן
העסק
שנדרה
כתבת
##ציחה
הכותי
ואכן
והוק
דהרב
לימין
לסנהדרין
בטלטול
שחוטה
לרעך
שהניחו
עזרה
לענ
כדינו
דגמר
וסוד
##דיקת
דדעתו
בערלה
##מזו
ולאה
דמצד
ההמון
תקן
ניכרת
וה"פ
דמטמא
##כולי
##גרס
ועז"א
שהאר
בר"י
דר"ת
פיס
שצריכים
כמוה
ההולכים
וסבירא
##טיש
אחרונות
בעירו
בעריות
בר"ש
פירשנו
ברביעית
רמזו
שחלה
בהרת
דבבא
וחכם
פתחי
מציאותו
גפנים
המבי
ושמור
ואתיא
וטען
נוקבא
##גתם
שהראה
כללו
מבחינה
דלג
לנר
##מתיק
בעה"ז
##פצים
שא'
דאדעתא
ויחר
דחשב
##רוגרת
החייב
שכשם
המופלג
והסכים
תמוהין
ניהליה
העונ
מאוס
ברד
שווה
לזון
הצבא
דהיאך
להניחו
מקדימין
והלוה
##רובי
מלכו
הראיות
וקדושה
דוחין
בה"מ
שהמלך
הירק
זריעה
עבדיך
סירכא
מטלטל
ובקו
מתכפר
דכלאים
##עסקו
חמת
##דך
ומנא
ונתי
תעבור
אפשי
קס"ד
מתקנת
##בנו
##יווג
##וש"ע
העמוד
למשוך
##בירי
באחרית
נידו
ממשו
היסודות
איע
בבראשית
בחבית
גוזל
והתנן
ראוי'
סתר
דמס'
נושאים
בתקנת
דברא
אבוד
דברישא
##פאו
ממשיך
עבורו
ריא"ז
היע
כוב
ולמר
העופות
יתברר
ויבן
נזקין
טבלה
נפקי
דול
להרים
שאצל
ובתוספות
דה"פ
מתשובת
ויכל
הפיר
יורשיו
למאה
נזו
בציון
דמשנה
שהקדיש
בעשר
יוצאי
קצירה
צורבא
יברכך
מקיש
ויצאה
נפקותא
לנכסי
כתיבא
יפסיק
##וליה
הגלגלים
רעו
האזהרה
בבגדים
לר"ח
##כבש
יצו
##פייה
זווג
מסך
והמצות
לשלש
זיין
שהשת
בעמוד
שלאחריו
לגרום
חוזק
המרבה
נזקי
תולעת
ששאלו
יינם
כשחל
לכשי
אמתי
בדברינו
##שבוע
##מנותא
להכריז
בעידנא
הניזקין
הטהורה
מ"ר
צום
בגיהנם
בבע
בשלישי
ושלמה
לפרק
והייתם
תמהו
ג"ז
וא"ר
##פיח
שלד
ושטר
דמב
ויט
רווחא
חללים
מגלחין
׃.
נפתח
פייס
שבתא
מוחלט
ביאתו
ותימא
הפתחים
מפרישין
ואפר
החלי
תוציא
דפלוגתא
מטמאים
פרא
וכשת
##והנים
##נתינו
דשיעור
מלאכול
ובש"ע
עבודתם
##יד"א
הגרע
##דעא
באחריותו
עמיה
התקדשי
בתפילה
##בריח
לדבק
נקרע
פונה
##מ"מ
להגאון
ושליש
מבעלי
תחתון
יקדש
הי"ג
בביה
נאנסו
בזרוע
בהגב"י
##גרי
##עאי
##ציות
מצית
למבוי
דרגין
ארבעת
ובכ"ז
תקופת
קשות
ובתפארת
עזרת
בהל
שירצו
ליתומים
שהכניס
דה"א
##לותו
##חקות
שגגות
בחייבי
תזרע
הנט
שהואיל
החזה
##בישה
כת"ר
##מידות
שגמר
דמעשר
ומרדכי
##נועע
ב"ן
חמדה
##שנו
הזיתים
מקושר
נדתה
ובעינן
השמיטו
לצוות
הנבדל
##גדולים
הפרות
כב"ה
##שיטתו
בהיפוך
תפסי
נלך
דאצטריך
דהדין
משתעי
הטהרה
דשביעית
דפיר
והער
וממש
למנהג
ליהושע
האיברים
אגרת
מהלכת
היבמה
##מ"י
##יניהן
בפוסקים
דמתני
ובהש
הבחינה
כבה
באידך
ותשב
שתוכל
ונהגו
להריח
##פיפה
דעדיף
וחלו
פשטא
מהרי"ו
בלוע
משמים
בכ"י
וחלה
עניינים
##ריזות
וג"כ
יראי
היבום
טופ
גדולתו
לסברא
תוכחה
מגדולי
ומצאה
החושך
##פקל
##נסך
יורשה
אכתוב
חמרי
להודיעו
##תיקון
התור'
ולהר
ספירה
למחצה
החטאים
והעד
שמעה
עונותיו
ירבו
סתי
תוי
##יתני
ימיך
תלי'
נתערבו
לחטוא
שוחד
מוכרת
קביל
שתבא
##רונו
מאנשי
וקשר
כר"ת
כפורים
רגליה
הפוך
בפ"נ
לחפש
חריץ
הפילה
והשיג
האויבים
קלף
ניזונת
בפע
נזכרו
כמותם
מוליך
קברו
וארבעים
אחדים
##ורענות
דיעקב
##זם
והמל
שהורה
בחובו
מכחו
##פרי'
בפסול
הכרזה
##מעי
במסקנא
דבירושלמי
ברעב
דמביא
ההכרח
ופחד
לנוי
שהשטר
המיקל
האמוראים
שים
##עוד
העביר
ממס
מילת
התוי"ט
דחלב
רשי
שהעל
המקרה
הפילו
להל
בחות
##כסין
תאמרו
להיטיב
פסיקתא
וצא
ת"ה
##שיטין
בכני
##כחשה
פירשה
הלוהו
קטי
##גית
והמד
ומתא
משור
במקח
בקיאים
חמצו
מעים
נהיה
חני
פשו
לרח
כגריס
נבילות
בנגעים
וסמיך
דחגיגה
מוכיחות
##חינן
והראה
ועתוי"ט
מש"ל
ונפק
ברקיע
וכדכתב
דאוריית'
##מ"ב
##נוש
בעונש
מתפש
ושכן
##טעים
לגג
במשכון
ובשני
ראייתו
ערים
שצ"ל
דביום
##מותיו
לסעודה
והעמיד
כאומרו
זל"ז
ליורשי
ארבה
##יתיה
ובידו
בכלאים
אוקמוה
נעים
שיבה
##כ"ל
דאלת
ארז"ל
העונות
נצט
שחייבין
וישבו
נהורא
##שמיות
ונוטלין
שבראש
בחגיגה
דמטעם
הוצ'
להתכבד
דנמצא
במשקל
שורפין
בצאת
שקיים
##מינים
כהה
למיגזר
נחושת
ביארו
הרוחות
פטרו
##פירוש
אוזן
ובמשנה
הכאה
האזינו
##מצה
ובזו
דמיד
קי"א
דנס
והקי
העגלה
הקפיד
כשדים
##מראות
אדע
מבהמה
##מוקים
לתשובה
דאיתיה
ושהוא
תופ
##ברכת
שהפריש
בהשת
היסורין
ושנ
נקטו
פריו
מתיחס
נוסחאות
קורות
ומקדש
שנתא
הניצוצות
ריב"א
מצויות
דתרוייהו
וסר
פז
שבקש
בתיבה
הלומד
תורא
##ריד
בענ
ולבני
דזב
להלך
שנשב
שקבע
דמה"ט
ורחמים
דאלת"ה
ל"צ
לה"ר
##נוך
כשהת
איתנהו
הנאתו
##יבוץ
בפירקין
לריש
ספירת
התור
בערכאות
ולהבין
תמידין
נתבשל
שנוהג
באזני
בוי"ו
ל"פ
תנהו
##דורא
לעלם
והקריב
להגב
רבותי
שכת'
ברגע
ודכו
##סתרות
לישאל
המערה
והוכיח
##פח"ח
דרכיך
##צלים
שיותר
השופט
גיורת
אגר
ניתר
ובנים
ושינוי
ביהמ"ק
מוחזקת
עשירים
משגי
הקרבה
לת"ח
יבשה
יעננו
אנינות
יסיר
מיהודה
השרש
וביל
שבכ
יונק
לכפרה
והקדוש
תלמידים
##יבמה
ומט
בעק
##עד"נ
מערכת
השפחה
הנעל
##שתיה
ילבש
##ד"ה
והמר
שהמוכר
המפלת
ולישנא
עצומה
הסל
דבעיא
בזוזי
בהדייהו
לאבותינו
השייך
נשמר
אשתך
שבשטר
איתן
ששבת
והתב
הגבהה
שימש
דעדים
##פכת
וששה
ידן
לספור
משמשת
כחוט
להקים
ליפול
##פותה
בט"ו
##צדקה
והויא
מתייחס
לאחריה
מטרי
##ותיך
שאחריו
המחו
ובכך
בשלה
הזן
בצדו
ומכיון
נושאין
דאברהם
משבו
שכולן
בגויה
ויצו
מטיל
בגדולה
##ודאות
לעבודתו
##רופי
לנק
לעבדים
ממאה
סעיפים
ואמור
##וסי
משביע
ופלגא
בחדוש
הגר"ח
בהגה"ט
##ושיית
ממזרים
ישתמש
יקי
מ"ל
ליצ
לכש
במתנות
יושר
מזאת
##יתוך
נענה
עקרו
דפרה
הנקבה
כניסה
ירשו
שיכולה
טוענת
פגול
ותכלית
לדוכתא
הקידוש
וחג
לזנות
חפצי
וצל
ושבעת
דאוכל
בענן
הרגישו
הח'
שילה
ההויה
מתאוה
מיעט
גבריאל
ימתין
שנרא
עדה
כנפות
שנאבד
אצלך
תקיעות
שבוע'
פדה
ומחו
מב"ד
דקנס
חלוצה
גבוהים
שמצאו
יתומה
##דמנו
בהלואה
כאו
בסימנים
##חיתות
האפר
לתינוק
לצל
והמס
הלוך
כפו
##חטים
הגידין
מנש
יסד
הודאתו
לדידי'
שינויא
בבד
וטרפה
המחילה
בשורה
היצירה
מופיע
טבילת
ואבר
בפניה
הפ'
מכתוב
דכשא
לכלב
נעלה
חנון
##ענים
בשט
בא"א
דברכת
שיעידו
אכלי
מראובן
וטהרה
יינו
תפתח
שאבאר
ולרבי
העטרה
החולי
ודחה
דפת
ושבועה
והיוצא
העוה"ז
החתימה
הועילו
אסירי
##מהו
החטים
ממונם
התינוקות
##כנסה
דואג
מולד
בענינים
מקואות
החמשים
מקרוב
לשמי
דלפני
הוכר
והעולם
דנותן
הנמצאות
נסר
##מיכות
ולקבל
##כתחילה
ויסוד
שתיקה
הוציאה
הנדפס
המאורסה
שהעו
##דומי
הראות
בקרקעות
בי"ת
וחשוב
והאב
##סופק
קונים
בקונ
הישראלי
במאכל
דירת
וכמאמר
במית
מאבד
החק
שליט"א
##בולות
פקוד
יפרש
ומדר
פסקא
הצפון
גרמו
חצרו
בעתו
מדליק
קונות
שהביאה
פרוסה
מדרגת
ואבידה
##יבורא
נשארה
והחכמה
##רבת
יוני
עונו
תפוס
דמקבל
דלכל
בנב
##טיף
בפה"א
קבועים
בשרה
##ממא
ההפקר
לאומות
נכתבו
קכ"א
ושייר
והשלישי
לכנס
שיתקיים
לסופר
לאד
ישיר
בחרו
ששינה
והש"ע
חמשת
מנהגם
ענות
תדבר
ולקיים
נפלאה
גויים
ליורשיו
##זיון
משבח
בכנ
דג"כ
ומוסר
ויבאו
סקי
והמב
##ישינן
אחיה
כוחות
שהאו
ע"ת
הבנה
ההק
שמודה
נתונים
מ"ק
ששר
ודפח"ח
היושר
##נעול
דבו
החשוב
שישמע
מכריע
ומשקין
נשחטה
קי"ז
שיבטל
ושבעה
לכולן
ברכי
חיין
##חקור
נובע
העשיה
לבנין
לחזקה
ביוקר
מושבות
ואבי
ליין
פרסאות
יעבוד
שגגה
##טריקון
למדינה
חזינא
וברוך
אתתא
מסקנא
בזנות
התרגום
וערבה
וליש
הקנים
הכירו
##קביל
האיפה
להיכל
,:
ט"ב
כוש
##פליג
להדי
שהרא"ש
במעילה
היראים
##נאמר
ורחב
##ניתי
ניסא
##מיתך
משדה
במשל
יאמינו
רשותא
נותנו
בטוען
ותמהני
אתק
עונין
אהבתו
קי"ג
הילדים
יזכור
זכריה
בהעלותך
וזרע
לאפ
מוחה
גרמה
לפרנס
##מחי
##שירות
##עדות
הלכתי
המתיר
נסיון
##מלק
שהוש
ודריש
שעליהם
שטב
בקולו
סוסים
##he
##כתחלה
בגבורה
הכרובים
מחלקת
נטמאת
##לשלות
ולמען
שוגגין
במשי
עשאן
ודן
מרפא
חוששים
להנאת
לקדושין
##פללין
ובוודאי
העתידה
החזירו
חורש
##מטו
דהקדש
ראשים
מקב
נקודות
נשברה
יוצאות
שמשי
ביבשה
חברים
פאת
ומטה
ומנחה
מעיים
הדפוס
לחמי
ושער
חלף
שפעמים
כסו
רכה
ש"ב
שצו
##כותב
ואהבה
הדבקים
אברי
##ינונית
תומים
עוברה
יטעון
עתים
בנזירות
##קבן
וסמ"ג
אחרי'
יבאר
הפסולת
פשטה
לאלפים
עשבים
צמא
הע'
לייבם
כאש
ממלאכה
שנטמאו
##זע
##צצו
האצבע
ישיג
משכיר
כשיב
מגופה
מורשה
והסמ"ג
ישרף
מכניסין
ובדר"ח
סובב
ונגע
ממזרח
דעשו
ולבטל
דבשעה
העומדת
ליחד
לחובה
הלמד
האומנין
זן
##ורל
משמת
##גיחה
יעוין
מבד
עליות
דהביא
שבכאן
הנכונה
החתומים
בגידין
##סקנת
ובע"כ
שמחלק
##וביינא
בודק
##פיסת
תלד
##כסות
האתרוג
נעו
המיו
עניי
קמיפלגי
ששהה
##פדה
בה"ש
שחש
##וגיין
תאבד
לפרשה
קולי
להרויח
שבמש
וקבלה
ורצון
לתקנו
כמיניה
השערים
הנוסחאות
אסף
הסתר
כעבד
שחות
##ברכים
המלכה
דהשו
ופרו
סברות
##עוררו
מתייבמת
ח"ה
צנו
אליביה
מתפיס
מקורה
הסי'
מספרים
להתרחק
לארבע
במנחת
בדמיו
מידת
דורשין
##תונה
##כתיה
מבול
שתלה
כרגלי
##טיחו
המשכת
נוספים
רציתי
##מותם
יתרה
לטעמי'
אבותיך
חיילא
המחק
שנותיו
לשק
תרנגולת
תפלתי
יסת
יזכיר
##כ"א
##קוהו
ושלו
בריוח
כמשה
בשעתא
גורסין
ומרו
##נויים
צררי
##מט'
מאחיו
קשי
##ורח
המזוזה
שנולדו
מאותם
דקר
הט"ו
יב"ח
דהרי"ף
מוסכם
דהעיקר
השגחתו
##ופני
##באו
חבלה
נשתנו
ישאו
הבעלי
אשכנזי
ירע
בערבי
בשבתות
הנוטל
אגודה
סק"ו
וכולהו
שלזה
אימה
ושמעינן
מסא
לצע
עמוקה
חותך
להכניע
ובעו
בדקדוק
כנוס
##יוו
לחשבון
זוכים
הוכיחו
נמלח
היקר
להרהר
הי"ל
לקיי
ממיתה
ויהודה
נדריה
שדינו
נפסלו
שיניח
והארכתי
וחוץ
כ"ת
לפרעון
##ירשה
עדותם
ניזק
תקרב
צווח
ובלתי
לבעול
יתב'
כיבוד
ספור
העקר
ההפרש
##בעון
לאומר
וכלם
לצדד
במלאכתו
כנגדה
חיובו
התקיעה
דכה
סלק
בפרקין
הטיל
והתירו
דשקיל
להלוות
סרי
##קשת
באחרים
לנח
מזומן
בדופן
לקרותו
##טחו
בעולת
למדר
לנג
##כריז
להאדם
נהרא
מקומן
אחיזת
ובימי
בשערי
מלעשות
כפועל
להפוך
ובמד
הגניבה
##סיפין
##טוח
לסכך
חילקו
ואודות
הארבעה
ומית
בעז"ה
באשם
##חוס
נתכוונו
ותלמיד
שתרצה
כר"ג
לרבויי
רובם
לכא
הישוב
רוטב
שבאים
קריעת
מרבינן
רובה
שבתי
שבחא
למקרא
מוכת
היושבים
מזמנין
מתעורר
נופלים
שבממון
האס
##תייע
הסמ"ק
וישאר
דספיקא
הפרס
##נחש
ומאתים
המיוחדת
##עוס
ועביד
התשלומין
כתבינן
לקדשו
בגוי
בבינה
עצות
במעט
ברשותיה
וכשמ
ותבין
מטהרין
ובריש
הבלוע
יתפרש
ההכר
נשבעתי
דקאמרי
חרבן
מירושלמי
פדא
תמוז
שבירת
שענין
##גוזל
ידו"ד
שלבו
תחמוד
אונסין
משפחת
לאבא
##פקדון
כבודי
ובלב
הברואים
תפיס
סביבות
קמיירי
בסמ"ג
בחיבור
כהרא"ש
שרגיל
ישועות
חנות
הקרי
מאש
ובאין
##טרוף
סלת
הקרקעות
ברש
##בוט
ריבו
המחיצה
כללית
נגח
לבערו
נבדלת
שנבאר
החרש
וקיום
##בעיר
להחי
##יותו
שהיום
וחליצה
פצ
להפס
כאמרו
מושג
##צלחה
ונדבות
בגליל
דפל
מצרא
ונחשב
בת"ח
##חותא
ויאכלו
שאח"ז
ולמדנו
במדרגה
חימוץ
המשקה
למתים
וחיים
גחלת
שינת
##ואף
טובו
זעיר
ר"ב
##כסו
##עדה
##רומם
##פשי'
דתרתי
ערכו
העזר
המחיה
למתניתין
דגזרינן
וטריא
לכתובה
נשנית
המע"ה
משפחתו
ממאנת
להנך
בלולב
נכנסת
דומין
שחילק
הרחם
##מצית
כקנין
##פוטרופוס
ובסיפא
בממונו
##נותה
וקנו
ארצו
בדרכיו
השתדלות
דהבא
##דווג
לקדוש
פי"ח
וטעה
הערך
##רנו
##is
מז'
בחוזק
מתענה
##להים
ובער
ועד"ר
בגבולין
כפשט
##מש"ל
בד"ת
בלילות
כנז'
אויביך
לאחריני
רמאי
##וגרת
מוציאים
חזון
שטעמו
יארע
סתומים
להצטרף
להרי"ף
##דיע
##שייה
בבתים
לצבור
נבואתו
להיכא
תוי"ט
##ות'
##חיטתו
וז'
הזיקה
לפניכם
גז"ש
אראה
##נחים
##al
מתירא
ניסוך
##זכרת
שסופו
תלויים
זצוק"ל
האיי
הל"מ
מבוארת
דמתנה
וידוי
דהול
הגבר
לשיעור
##טוינו
בריבית
למדתי
ערעור
והתא
שלחה
ובמי
לשמחה
ויעמוד
להפסד
ושיע
מקרבן
לגלויי
גורן
ג"ע
שטה
הפסולים
תנועה
הביצה
דריב
חמותו
יטה
העמודים
נתמעט
ושתק
דחדא
לסור
##פידין
בפסקי
תתע
בטעמו
אוהבו
##פוהו
והזיק
כא'
דמסקינן
מבש
לכד
בלימוד
אסת
ועשא
החיבור
לשבר
לאוקומי
ליתמי
##גולה
##ממה
ויגש
בזדון
במקור
בהגיע
הכונס
סעוד
מכוונת
הגזלה
דנוה
ובביא
שובו
מיתסר
##חלקה
יריחו
לשהות
הנשרפין
לבלי
##חקה
התודה
דלפעמים
בקשר
יחוש
שהוזכר
וחתמו
ללות
##בי'
##תהוה
##טאה
הרופאים
דלדידן
באפשר
עוזר
שפתח
אחזקת
שממה
##בלונות
פטרי
קשרים
##נינהו
##ניף
בעבודתו
ולשם
הפ"י
הויות
תתנו
ההשגה
דאונס
##פנא
וכצ"ל
שהול
מערה
##חיט
דרשי
##צייר
גומות
להש"ס
לשמוח
השיעבוד
שכותב
וקדם
שקדש
דתנינן
אשירה
מזכה
דרבוותא
יוסה
שכולל
##כתית
חשק
במתכוין
סותם
הבירה
מבבל
הגדיל
צולין
החבור
וכדמשמע
שפתיו
בהדי'
כופה
בחנות
החלות
לזולתו
ושהה
##ינתיה
הרוקח
ת"כ
מדמ
כשנו
דנפי
דמועיל
מנהון
כהלכתא
לפוטרו
בגיד
הזכירה
משוח
ונשארו
להכריח
דינן
אוב
בשניה
עבות
מקוים
ממעות
##לדות
להזי
הדלקת
החבר
נתקדשו
וחקירה
באיסורין
שפרש"י
שוי
שרבו
המועדים
המשקין
יאבדו
קכ"ח
קליפת
דקט
בטיב
##ס"ה
אשכול
יקרים
דדחי
המחשבות
סמכה
לאהבה
מעיז
מעקה
הקדום
בתך
היאור
לרצונו
לקבלת
ני'
והחזיר
בסבת
ברשב"א
מקרקעי
כשתי
מניחו
תולדת
##נצל
ומקו
ועונש
במתן
הקור
חיטין
אזנו
דייקינן
עידית
קברתיו
שבירה
בבגדו
הוחזקו
##גיירו
חסדי
ולקחו
מועטין
להנחיל
כבהמה
מהנך
מעשות
מתגרשת
שנוכל
מכרת
נשות
##פיי
יעיד
והאחד
בהשג
ובפירוש
הפתילה
כנגדן
דתוס'
ברמב"ן
המושל
כסברא
בבה"א
וחייבין
אן
##תונים
האמית
העובדי
##חוים
מאמו
דמנ"ל
יחפור
להשתנות
בתרומת
והודיע
דבורים
למפרך
בזולת
בצור
##תיכם
##בורך
דכמה
##טילו
רצועה
##קטרה
שיצאה
ובחי'
ומלשון
##שוקה
אייר
הדף
הראב"ע
דסי'
כוונו
נזדמן
תורמין
ששייך
דיעה
כלולים
במכ
מעץ
כשג
שנהרג
בשומר
במק"א
תפסה
וקטנים
ואינך
וכותב
מתקדשת
כאמרם
דשליח
ארז
עובדין
והלוקח
ועובד
וגדר
מבוא
שגרם
שהוחזק
רצופים
האחרות
בחבורו
שקדמו
שובה
##נחו
והירושלמי
בהנ
##קוטי
דרשת
דגזל
לצלי
הקבורה
באו"ח
מאיל
ספקא
ומוסיף
השלש
שהקדוש
בדיוק
פקו
שבפנים
דלר"מ
להוריד
באנפי
תשר
##מנית
שהותרה
דה"נ
שכפי
באבנים
שהוקשה
נתחדש
תטמא
ונתח
הרוטב
מכשיעור
המפורסם
ו"
ופה
##חקרה
ובהלכות
##צעק
ותשכח
מטומאה
הסנהדרין
מנודה
יפנה
חמורים
הרחוקים
וישי
דשור
דמיין
תו"ש
והגוף
בעושה
דלק"מ
דשמעתא
סחור
ואמ'
מששים
דבשל
ושואל
##שותף
וחנון
##ושעים
בוכה
לקבלו
וימים
ותמיד
דגברא
כפלים
זכיות
דיוק
ולר"י
טומאות
קיבול
בינתים
מ"כ
נפסד
לאמה
להראב"ד
במותר
זוטר
ור"ן
רוע
חלץ
נוגעים
במיל
יתהון
ולוק
##נינה
דהז
דלכן
הווה
בטובה
שפ"ד
החנות
לקדרה
המקובלים
במלחמת
לחמו
בזריקה
שזכרתי
ויתה
##כחי
יעמיד
שפוסק
ואומרו
פרוץ
תניינא
##נקס
דטמא
שהכניסה
להשמיע
מוכרחת
והאיך
מוטלת
##דלו
ואותם
כלתה
השוא
וחכמה
ויעבור
עיניכם
לש"ש
שכתבת
הביאור
השלמת
מערכה
באזהרה
##צרף
ביה"ש
ולדידי
יורו
##בדם
מאברהם
דקב
וחלילה
וראי'
גורמת
זללה"ה
##מוק"י
תגר
המעו
יאש
יקדים
לאביהם
##כשלו
הרשעה
וגרסינן
טבת
##פ"ל
והמי
שהש"י
בשרא
בשליח
שמחות
##נותא
שעטנ
יעסוק
כרש
אזן
ופשתים
יחידה
בעבורו
למרחוק
##גולים
בתקופת
לקידוש
ביארתי
דהטור
משש
בקרי
לגזירה
בריתו
דגוף
##נהגת
ישתנה
הובאו
איילונית
##יהא
והיום
פרצ
##בועים
דגריס
##פותא
חשדא
למשכן
נבחר
דקדקו
שהט
משקים
מערבי
הנדון
כחצי
תשחית
רגליהם
ו"ה
שאביו
הגרג
שוורים
ורשב"ג
ומהני
הישיבה
נשבעת
בשמחת
דתלינן
יכירו
נזיקין
עשין
לומדים
בתא
##סרת
תרח
שירים
כמשז"ל
":
תצטרך
בדוד
דמתוך
מחזי
מרחץ
בעומד
בפסיקתא
עיבוד
קופה
##זדור
##יאון
המבדיל
בצינ
##לב"ל
פתיחת
ול"ל
הכוסות
ענינם
##פאה
השחתה
דהד
שיכוין
נסיב
הטענות
ותהא
לימד
מילוי
##תובעו
שהעיר
יגמור
קבלן
ואוכלין
אפרש
מטל
שהיין
שמנ
הריא
שהגיעו
אפך
##זלים
ומפרק
##כונות
וכת'
העליונות
קידשה
הדליקה
תקעו
שייכת
אא"ז
וה"א
להוי
המפתח
מש"ז
שבמשנה
שנסתלק
בניכם
בפר'
נדוי
מצווין
מחייבו
הצרעת
##ברתו
הבונה
מאיס
הנהוג
יודעי
לפרסם
בכתר
תירוצו
נעילת
רוד
##דיה
לאחז
למצא
יתקן
עודנו
פי"ז
אדמת
ירמוז
בשארי
תולעים
תפסו
גנות
ובסימן
מע"ל
הכבשים
מכביצה
יחפוץ
הכושר
דחויה
נחתך
יסורים
במכת
כמוני
ידבק
גרשון
אלימא
##סמים
בתשעה
הבאין
##דיים
שביש
ראב"י
בגופה
עממין
דמלבד
דשבועה
שלוק
ברחמיו
שתיק
הבדיל
ש"צ
ועמו
דקות
ידור
דסמיך
והולכת
קנ"ד
משכנתא
הקצר
מפלוני
מתיירא
##מכוס
להושיע
דהלא
הקלף
הראי'
גידול
עוקבא
כמספר
21
סיבת
משמי
ותצא
מגוי
פעולתו
דלכתחילה
האורות
##מצינו
##תוקק
דצריכה
דתב
שברים
בכרי
בעליהן
דיוקא
פרטית
דוגמה
אשב
נמת
##רבית
ובפי'
שנשארו
בברוך
להסת
המתי
המזל
העבודות
הפרנסה
לילד
לה"פ
האיל
לבחי'
נו"ב
בטבילה
ימחה
בתרגום
רחבו
מתוכה
דורון
פקפוק
נשתעבד
לשבות
המקבלים
##ולעת
ולהס
במעלות
אורי
ימא
הארבעים
ונפשו
ברכתו
מכבוד
ובאשר
קכ"ז
מעצמן
נהרגין
לשיטה
##פקלריא
##נ"א
כשמע
נאחז
והמצוה
שנצטוו
יחלקו
ללקות
שירות
##מוטי
המטר
לקה
הכלבו
ושבח
##גוז
שבתחלה
ויהושע
המחט
ליבון
ותיפוק
י"נ
##פז
##ליגו
בכללות
מפשט
והאידנא
כוחו
##חמי
ואבדה
והפרי
העשרה
מחמי
##פוני
המוס
מעליהם
הכופר
וברכות
פקעה
בהול
ישמר
במכה
מופר
ליסוד
שישוב
ביח
דאימא
מטפח
תבנית
בדר"ח
ויתי
שטן
##גוב
בהרי
השדות
הר"ח
להתח
ישעיהו
דירתו
חישב
ינתן
פיל
##לומות
ומגד
ישכון
שנר
למב
וחמשים
ניחוח
וטומאה
##וריתא
ושמי
מחצ
דגט
בביתך
משתת
שהתוס'
מהשי"ת
הקלו
מתת
מדתניא
לחלקו
ויכתוב
##פללים
הנאות
בעצמך
דטב
ומחל
באפר
שכחו
אבותיכם
בתוי"ט
אלקית
ילין
לסיים
ממות
מקשי
כחול
הכנעני
בשפחה
ויחיד
שמעיד
שתי'
אונסא
דכופין
שמדברי
לאילן
בעמידה
בסגנון
מבינים
שיורה
דנח
##גהת
הושיעה
בולט
משמרות
היקף
שפט
##מכין
ומגיד
מקדשים
שע"ג
##קשי'
קי"ח
והמלך
נופלת
נפילת
גזור
##פינא
דגזרו
קבול
קרוביו
ומסתבר
גגו
הירושה
##יובי
ובגד
בדרוש
##בתים
ידברו
מסתכל
הונח
עיי'
נביאי
בש"מ
ועוג
העמידה
ההשת
##דקתני
יבמין
פעלו
גרסי
מכרן
אמורא
לאהדורי
חמישית
אלי'
מאמרו
שישבו
חזקות
בתורתך
טמון
לתנאי
##רגשה
דורס
דסתרי
בעשרים
מיפטר
גדולת
ספ"ק
שולטת
בו'
טבריא
שזור
והלו
מהנה
מדינות
בקור
כהא
סימ
הרוג
מורדת
##דינן
ואסר
בחנק
##חתון
ללבן
עמודים
בדליכא
ומדבר
וביני
##מע"ה
דהן
דהקשה
לקבור
היוצר
למשנתנו
ותוספות
##דוי
##יובא
בעגל
דבשביל
איצטרי
##חררו
בבטן
שעורין
שמעולם
##קדקים
הגהת
נזירותו
הקדישו
##גנין
והודאה
רבין
הבמות
עזב
שחייבים
מרביעית
העשויה
וזרעו
כנסה
שחד
ביצחק
ולהורות
שיקבלו
לדרשא
##צנים
דאקרי
אחוה
ומכש
ובתה
השמטה
ונחת
ממנ
מיחו
יוסיפו
קרובו
המקרים
שהסכימו
שילכו
##or
##ולעים
מהדרינן
היורד
רא"ש
מועילה
##שותיו
נימול
דאיתמר
ולתקן
גוג
לובש
בקליפה
נתנם
סימנא
אסיקנא
##עדשה
דיעות
נבה
##חטן
##קעין
הדבש
לפסק
דנשבע
הזרעים
מטלטלים
נכרת
שאותה
המסורת
חייהם
כרחה
ואחיו
מצותי
ויניח
כבו
שמרים
לאותם
שלענין
הבכורים
התרת
##סתכלות
גמלים
זדון
חבריה
אחיהם
לב"נ
אשרה
קוצים
להאכילו
ובמס'
פרוטות
קפדי
בגלגל
כמאה
##ננת
אללה
בלש
לסטים
שטף
להודיעך
בזכותו
שהגט
חא
ואראה
לויתי
שענה
ששחטו
חטאה
ממהר
חיובי
נוקשה
שהזכירו
האסורין
לפלו
תקבל
שפחות
שטוב
קחשיב
עיו
המט
##פרדו
##חימו
בחלל
##כותו
אנטי
וכדלעיל
הכללית
וכדמפרש
כתו'
##כוי
הקערה
יה"כ
נקבר
סיפור
שמחו
וקדשה
לדבריה
קרויה
דערלה
דתה
המרו
תחיית
##ורית
וכע
בהוד
הבועל
הנות
הפרשת
##דרי'
אוחזין
חדרים
##דיות
בחפ
ודקדק
לגופו
הפוס
נשאה
בבהכ"נ
שגדל
והלל
##פיעה
לקדושת
שילא
המאוחר
הגהמ"ח
ויוצאין
אבוהון
נל
והמא
מהפך
ומתחיל
בדמות
ביורה
וחבר
בעילה
ומזיק
בהכשר
לעניות
העלייה
יהוש
ליכי
דברנו
##בוץ
##גדות
הצלת
אסון
צדקות
להמציא
נתבטלה
הסתרים
מזוייף
מזרעו
##יקח
ונקי
ליטרא
להתברר
##דותא
שאלתי
וילקוט
בהשגחה
י"ש
יומים
בלילי
דכלא
##סומי
ובמצות
דדווקא
הרועים
בארצות
בעצמי
לשיטתיה
צעקה
הכנה"ג
ועכצ"ל
אט
##פכין
מציין
תרל
##נעא
מתחילת
כמאמרם
הפרוכת
פב"פ
אמד
גסות
לאט
ובחו
ובמ"ש
ובהם
בשול
ברחוק
החבל
דתלי
יצתה
בתשובתו
שלכאורה
ונמש
וילפינן
מריש
מברר
סוב
סברו
בחנוכה
לחה
##טלנו
למיזל
ומשקה
גופן
הגאוה
האחריות
נטמאה
שאלמלא
קכ"ט
הלקט
##יהיו
לחס
שכרם
שאעפ"י
לגאולה
##וחת
ואו'
בששת
##חקין
##כבות
יבינו
ה"
מתרת
לפור
##צהרים
מיחזי
וקים
לטעום
אויביו
החריף
דאיק
##שב"ל
מוקים
החתיכות
הרבוי
אצבעו
משיאין
הגת
וגמרא
וקטנה
ידחה
נקוד
בנביא
מיראה
ב"ת
שהמח
מעובדא
דליהוי
ייחד
עסיק
לוקחים
זכין
מורין
פגו
לאמתו
מעי"ט
מצרף
בצרכי
ינוח
24
לארעא
האף
דהרא
עמוקים
מקויים
ושבט
ופשע
##מר'
המדרגה
מקבלי
##פקח
עמודי
כבעל
חנניא
קנסות
לדרכו
הובאה
ולחזור
ימלוך
סתמו
ושוה
שרוצים
מצטרפת
בחרם
##לוקי
מהלכה
ומשא
דבאיסור
הדלקה
לחנ
וזבין
שבארץ
הרועה
זיבורית
השמ
השכלית
##גיטין
וסמ
ששמעון
הרחיק
ניתק
מובנים
ויקר
יחזיק
שהדם
דמקרא
שרשי
ענוי
ומקרא
ולטע
שמסרו
##נגדות
והולכין
להצריך
מאירה
בנפשות
כהך
נשל
קטטה
##ריה"ג
דמוציא
שפרעו
ממלכות
כדה
שישמעו
ותתן
הוינא
אהלים
ולדבריו
חצירו
האלק
ומצה
אפרו
ניצול
גע
להטריף
בעינו
אלפא
יתיה
דחזקת
סבלונות
ההתחלה
דעבידא
ומדי
שישי
כרחם
מהווה
כשיצא
זכאה
מדריגות
רשויות
ובילקוט
יכלה
להבל
##טעין
ועלו
הפדיון
וצריכים
מחוייבים
##חסים
היצ
##ותרת
שממנה
הצמצום
##בראשונה
קיצור
החומרי
מטוב
סולדת
תקיף
דבורו
מבואות
בעלות
שחורה
שררה
יישוב
וניכר
שדים
##וי'
##וריה
##יבורים
דה"מ
העונה
כדפריש
הרומז
משיחה
ובד"ה
ופסח
נידה
פצוע
ק"מ
##תבש
החדשה
מבחי'
שבעיר
עתידים
תחשוב
אגוד
כפירת
שרוח
להש"י
אתרע
##חיקו
כדרב
הפסקה
כניסת
ללוות
בדומה
##ז"ש
אתי'
לעשי
נפגם
בתו"כ
וליטול
מגלגלין
תובעת
סידור
##צחים
העולים
##שילו
וימי
אבת
מר"ן
למרן
לאכלן
לאורו
מפלת
ידיע
דחצר
מניעת
המקריב
ישר'
נבדלים
סחיטה
שחזרו
##ריהם
שהחמירו
דבמה
התורף
וישובו
מרצונו
בסוכות
יטעה
ילמדנו
זוק
ומקנה
גוסס
לאורך
וב"ד
שנתבטל
החכמות
##סתות
נקם
אדרבי
ארג
נוטלים
שהזהיר
במדריגה
יהבי
להשגיח
סמ"ק
מחייבים
##ניסתו
מסיח
תבונה
ואתן
שהלוקח
ומכה
הגבור
אצילות
גזולה
חושבים
למועד
יורדים
שהמלוה
האלף
האל"ף
הבע"ד
חוס
טיבו
##ככין
ומין
ולחוץ
מבניו
בתומים
להר"מ
מרגליות
22
##ולמות
##ניק
##יתנו
העמד
הגביה
בעיסה
משתעבדי
בחוט
דבהכי
בעונות
קכ"ד
רובן
כלולה
בחיבורי
וגבה
מחה
נתיר
הזכרון
וראשו
ומאכיל
שלחני
סומכים
הוסת
מפסח
נכללים
##ריחו
האט
וביש
בתנו
בבריאה
הליכה
רפ"ב
קכ"ה
מאכלות
דאכילה
וזור
מזהיר
##טריח
להעתיק
דטפי
הקללה
תהיינה
להפרישו
דלוקה
חורב
לכה"ג
דבז
מעבודת
דלמאן
##וה"ג
##משני
מדב
נכנע
והעידו
שמהם
שותק
דוק'
##ארה
ולולב
שהרגיש
גש
דשנים
נוטריקון
שנתברר
אסרינן
מכוער
קנתה
נלענ"ד
צוא
והגאון
ונ"ב
##טהורים
כמלוה
כזכי
ילמוד
##צונים
ורבינא
הושעיא
והבית
דמזה
מכרעת
סק"ז
להניק
פלגינן
ק"פ
שיום
שהחזיר
ומעו
מש"ש
לזמנו
##מחוי
החוצה
לקחתי
שבשם
ידיד
הכתם
זז
לברא
ולבי
מופלא
שיכתבו
##חל'
כר"נ
הצלם
##געיל
##קלע
יטמאו
הא"ר
דרור
ותתא
הפלא
כשער
נשמט
והנש
וירח
שספק
ולקחה
וניעור
לשלמה
בסך
מכס
ביה"כ
##וננים
המטות
שנט
פירוד
שגבה
כפירה
מזוני
יואל
בתשלומין
בדבש
מימין
בטובת
וכלהו
למדרגה
בב"ש
כשראה
ומשיב
שגזר
דחוזר
דבוקה
חרון
טפה
פירושה
##ואיו
אתינן
אביב
השו"ע
נגזל
קרנא
שרוי
##זרוק
דהירושלמי
שב"ד
בס"א
דקרקע
וחבירו
האבידה
האיסורים
עשייה
##פילתו
וככה
דאלים
ולבתר
הסטרא
##פשף
מנדין
יאסר
נפרעין
להחמיץ
קחו
המגדל
שמחזיק
בבעלי
שעוה
אלהותו
וצע"ג
מודדין
רברבי
##יבתו
מדעתה
ההודאה
דמתחלה
נולדה
##דעין
והמז
ומכיר
כתבוה
דמקדש
מבנות
מנהי
ערוב
לקצור
יעביר
נפשי'
דשיי
לר"נ
ולבנה
לקראתו
נחזור
##זרא
##מיטת
לגיהנם
נשכר
הלבבות
הניתן
מערבא
בסה"מ
ליי'
דהאידנא
##זוג
נחוש
כרבינו
כנישתא
נחה
שורת
##יבמות
אוסיף
קכ"ו
הטומאות
בחזקתו
##דנו
שמנים
דסברא
רוחניות
בשילהי
במקל
התראת
שכלה
בק"ק
במעשרות
חולצין
והמלא
המלחמות
דטו
אתקרי
##כייתא
היסח
הציר
הפסידה
מטרא
הרגשה
במצותיו
אקני
חמד
##טש
##זיבה
##פרט
מפורשים
ההד
ותקנו
המשכה
משאו
לאוקמה
יגיעו
ופש
משנתו
לשמרו
בקדשה
לגרוס
הזיקו
דלהרמב"ם
תלוים
השעורים
ניצוצי
ייר
הרפואה
אלעאי
ליטלו
לשפוט
ועלתה
##פיקור
להיכן
הבטחה
מבלע
##ינויא
בחבורה
לדב
ותמוה
פעור
כחוש
מושבע
ובבא
הנסקל
כר"ח
אלהות
עירוי
ומספר
ופסוק
בתוספ'
צדי
ישמור
החוש
שיטין
לגור
כשהגיע
שלהי
זכירה
באל"ף
סמא
שהנשמה
ונחלקו
והמלוה
ונותנת
לטהרה
ערער
##גנה
והקדש
למולו
שיכ
בכבד
שניכר
חו"ל
דגנך
חמירא
מברכת
##צטרפין
ארוכים
יכסה
לעוב
ראיתם
ושורש
ממזרת
השופטים
גירשה
##מטיא
ניצוץ
דשכיחי
לאק
ליכתב
מחצר
בניגוד
הזוה
בטחו
בעו"ה
##זבז
בורח
שיבאו
טירחא
ריהטא
דון
עלוי
קיו
ובקי
הת"ת
כשיבא
שיכולים
##צדק
רבון
##ליכם
##צוניות
הצורות
אהך
בדיינים
שהמלא
ערומים
##מצומים
ומברכין
שבמנין
שעוד
ההכרה
תאותו
שדחה
בקדמיתא
עלין
שביר
החנוני
##חרות
נייר
מגעת
חלקה
קדמי
וראי
במד'
פוטרין
לעונת
הקושיות
מתעלה
מכון
שמתא
כנגדם
אכפת
וקדשיו
##גרה
וכבד
מבערב
לרשב"א
מגילת
במעשיהם
האחרונות
ובסמוך
##לתם
##יתירא
והעם
ומפק
במשמעות
חרטה
ומאז
הפקיד
שהשכינה
וחיי
דבתרא
הדבוק
ונוהג
וליח
רבותיו
בבקעה
ומיעוט
שמשלם
מודד
השרשים
דבכלל
השגחה
ענוש
חיצוניות
לשרת
##לוב
השורה
משרי
##פהו
##מודות
יבצר
שמוכר
והותר
אותות
שנתגרשה
מסתלק
23
בולד
לעצם
הרואים
קיצר
ונשמה
בכתובים
ק"ס
וללמד
הננו
ההנאה
יצ"מ
פתחון
והביאה
##פלוגי
הגויים
הנשיאים
מוליכין
מחלב
דניהו
לז'
שהאיש
פתר
הגשמיות
בשמירת
מיימון
מחליף
ויגד
וסגי
פחת
ואסתר
ישלים
מודיע
זביחה
חרות
עוסקת
אוצרות
לחשב
דרים
לגוים
נסמך
רגילות
דבהדיא
חלוקין
מקיימים
ממית
וקדשים
##גיעת
כסאו
שהרגו
קדמון
והלשון
תזריע
ומוציאין
##גרסינן
כנים
סטרין
ושמונה
כר"ל
להתגייר
באומרת
בתיקונים
30
שלמא
השלחין
התפארת
לבנ"י
חיינו
הלמ"ד
נדפס
ומתק
פסוקה
ומנ"ל
שרגילין
מריה
##זקו
עלות
משעבד
משערין
דמחזי
דכונת
בחרטה
דגרסי'
וטל
ובבאר
ואיזו
אישי
מכריז
אודיע
הארו
בפורים
דרכנו
וישבע
המום
לנזיר
קטלא
כבודה
יחוס
מדרבי
זומא
וקרבן
הספור
כלומ'
ענייני
##גמים
בהכ"נ
ולפרש
ליורשים
לגופיה
כהנ"ל
המזמור
שלהבת
הירוש'
ושום
שושב
דאגב
הריהי
##צוח
המועיל
פט"ז
והולכים
דולק
ושבו
תשאר
ישמרו
ועולם
מפט
כהנת
האוצר
להשק
בחסרון
25
מזק
באו'
ליטע
סרק
##י"ן
שכור
##וקש
##גדת
לרדוף
מינץ
הגדולות
הזוג
עשיתם
טעמייהו
למינקט
אבריו
למנו
הח"מ
דסד"א
שנאת
##חנונים
זריז
ינקה
שקבלה
ועושים
שבעין
##חרם
שגגת
תגזול
במאתים
עכת
קמשמע
ובירוש'
אומרם
דמשי
ייטב
אוהבי
להשביעו
פוחתין
ליתי
להלוך
אוירא
דס"ס
תיבעי
שבטלה
לבבי
מצלי
##זקיה
בנכרי
דכד
במקורות
יי"נ
לבניך
ויסעו
ניזונית
לקום
##עדי
ואנדרוגינוס
ונקראת
ומוריד
מאחוריו
להרי
המחיצות
מעלים
הבדים
##ודאתו
הישראלית
עתיקא
להשהות
וא"נ
ומ"ד
ועצם
ות"ק
עדיות
ורחבה
ומרא
כנוי
##כפל
##מונות
התואר
התחילה
התשמיש
שי"ן
נוכח
כשהיתה
בהוצאה
דבוקים
המסייע
דכשם
שגלו
גופם
קריבה
ונכתב
החידוש
בגניבה
אנוסה
גרסת
לקנותו
כשיגיע
הנסיון
לנדבה
ונית
##גרים
ולבן
איס
ונטמא
יהוא
ודבור
יתקע
לתרי
דסמך
##עיסה
ובאור
נעשתה
ויקהל
לדרשה
כליות
ומרי
מעצם
שמכל
וחק
ומתע
קשורים
למסכת
משגיחין
מפסקת
תכלה
ישל
דבידו
יתור
המוקד
ובש"ך
להצדיק
הדרוש
בדברו
החפצא
הצבי
תשמישי
בדוקא
המקראות
שהצדיק
דצי
רכיל
##רכה
המכ
דהיתר
שכולה
לחות
ושפל
לשטר
##פסין
##בריאה
חייבה
שחול
מלכותא
במדרגת
גוש
פשה
ואזל
ואבן
##רו'
האד
אפיק
בביתי
##חדות
ותרומה
בכסא
שנאמרה
לספוקי
הניחה
##יחיד
ותוה
גלעד
אצבעותיו
##נקין
שמלך
##ירוצם
הפ"מ
מכחישו
##סרך
מגרע
יגרום
צדקיהו
חתנו
##קרבים
עונשו
לכרמלית
-.
שבעלה
מצפון
מלות
לנער
במחשבת
שניתנה
טוענים
##ar
ואוסר
בחותם
מדש
בכללו
קשירה
קושייתו
להורגו
מיתר
##מקא
המקשן
וענו
הרמה
הגיעה
בתמוז
##חייבו
יטעו
##פיים
הנכרים
ראב"ע
חדשי
אפיה
גאוה
מכולן
ס"י
##הכ"פ
להגדיל
שאותן
שאובים
המתה
##מדין
דנע
במהדורא
בליעל
לבדך
למשרי
דאה"נ
אפטרופוס
מיעקב
##יבון
בעזר
שימי
##חתים
דשחיטה
ובאים
אדברי
אנון
האותות
קנויה
##ירתה
והכו
מצבה
בתער
ושמעו
אעלה
באיזו
שהסכים
כשבאו
גרה
##פ"ד
##יבותא
שעשאה
בנביאים
כבודם
שהבעלים
נחלות
הבישול
ומוש
כשאנו
רצונם
לברורי
ועי"כ
במבוא
משבועת
##ענת
שאכלה
##יבוש
בעקב
ועפר
##דישה
דבשו
מתמיה
מג"ש
קומתו
בלעז
בירא
##זבו
ואסרו
הבירור
הנ"מ
ונסת
ונתבאר
דל"ג
וקדושין
עומדות
להשליך
רי"א
חביבה
בתיקון
ינח
כפה
לאדון
מחמתו
דרצה
שקבעו
דהאיסור
##כנעה
לריח
##ורון
בידיהם
עורף
איברי
הזקנה
תלתין
מקיפין
בשולי
מועל
צלפחד
גאה
##דייה
ושתו
עצו
ופוסקים
ומעולם
ובב"י
מפעפע
לטור
##ג'
לגזול
ורחוק
כעפר
לשיטתם
עה"ת
הקפידה
להמתיק
שהרו
##מילות
בשעיר
##תיכת
במסורת
שבמע
בחיל
מקורו
וימות
והר"ש
דזמן
בפי"א
בערבות
מוגבל
לגלגל
יפו
##זכה
המית
האמין
מעשיה
שמ"מ
מרובא
והראשון
בון
כיש
כוי
שמחים
לתשלומין
מקומם
מרבותינו
למזיד
היבשה
ותמיהני
שעטנז
עזי
ש"ק
מוכחת
בפדיון
בקלי
נתיבות
לגדור
שיתחיל
חליצתה
מניקה
מחזיקים
בתרייתא
והקל
ובפס
השערות
הגואל
מקני
מכירו
##טייה
וכמוהו
ביאוש
לצדדין
ההשפעה
נפסלה
יכר
צניעות
שהכהנים
בדקו
לפרי
טובך
נפשנו
המזלות
והדעת
דלפמ"ש
בגנב
לדברינו
סמיכות
לרעהו
ולמדו
שנחשב
בחלון
לחפור
לקנין
לשכת
כש"כ
##שיבה
עדיפי
ארס
ארמית
והפוסקים
##יתוף
שהפקיד
הנרא
וימלא
ירדה
עיסקא
בהיותה
##ואיה
הממ
בעידי
במ"ע
מחמץ
שמעיה
הזבחים
אמיתי
להר"ן
ותומים
שהשליח
צרו
שהוד
שהפרי
ומפי
ועתוס'
התפלות
שמבטל
##גיירה
יקל
קריא
עילויה
נפקע
בכרמלית
צמצום
להסתלק
ומקרי
ועונ
##שותפין
בכליו
##ציאו
דחמרא
מביאו
מעשרין
לחומה
הבושה
חפר
תגלה
לביה
##שתני
בגודל
##מורת
ששאלת
שמיד
ממלוה
נשפך
פירקא
כרבים
##יאבון
המדריגה
ומגדל
דהנהו
שכמה
בקמץ
ורחל
ידיעתו
הכיס
לנדרים
טרחא
בנותיו
וחלקו
סדין
והולד
הי"ד
לחלה
להניחם
להמיתו
הדביקות
שגדול
ואוקי
אחינו
אלפין
מציון
לדיני
והרמ"ה
קל"ה
ילקה
פונ
מאשתו
וקצר
אלהא
##וליכה
שנתק
אסרי
ריב"ש
ישארו
מאליהן
התרנגולת
31
ומודים
יתבע
שהיינו
מתקבל
תקיעת
נדבק
להרחיב
קצץ
בשתיקה
ונדחה
דאוקימנא
המני
##קוקה
רבני
אלמנות
יהודית
##צונם
שמעשה
שתרגם
כולא
##וריים
##צתן
##שיבות
תשיעי
גויל
ויקבל
אתערותא
תחות
דאחרי
בעשור
שמנהג
דמטי
הפחד
נקיה
וכלשונו
ששתי
משתמע
לאמרו
וכדרך
בעופות
מששת
בת'
הדל
##בה"ג
לחרוש
תשעים
בט'
מילתיה
נט"י
לעובר
ששימש
בא"ע
מתחלתו
##חותיו
שניקב
לנקבה
במוסף
ומערב
תתקיים
בבריאת
חבילות
הקיץ
הוחזקה
נסי
##צותו
הנחל
מממון
דתמיד
המובא
דעתן
ארצם
הקדושות
כפור
ובתשובה
יודו
ההיפך
מישאל
אחריהן
לברייתא
כסי
##מנ'
לאלקים
##עלתי
דמחמיר
הוכשרו
שהקריב
קכ"ב
דידעינן
המנהיג
##יע'
לפ"ד
דררא
דקדוש
בנזקי
לכפול
עשויין
ילדים
התערובת
משתמשין
התוספ'
שהחו
רועי
יסבור
ללמדו
קרובות
מצטרפות
וחוזרין
יעל
נעילה
סתימה
##לוגת
שלג
משנ'
השניים
סק"ח
##בשו
הב"ה
הנולדים
וגבור
בבישול
וסבור
נהנין
פסולות
קכ"ג
מהדברים
נסתלקה
נברך
##ערי
ועדי
ויבר
והיית
מהלכין
מיתוקמא
##מקים
##סך
##ע"א
המזונות
שבחר
בקושי
הכירה
למעיין
אלקותו
ובדברינו
##קרים
מתברר
מיצר
יתגלה
בנקל
להתחבר
טופס
השומן
סגור
נתייאשו
שמצאתי
נדוניא
נקובה
לנוח
##כסי'
המצו
בשינה
וקסבר
שס"ה
צוהו
##נקה
והתו
##זורק
יריעות
ללוים
כודאי
אחית
השינה
דב"ד
לבחור
בתם
לדמי
נכשל
דנקרא
שדוחה
סודות
בשמירה
במותו
מיחד
ביטלו
ביכולת
לנקב
באומות
אזו
ייח
##יל'
ועמך
##רושין
למדוד
עשירה
השותף
סד"ה
נישאת
תחילתו
##להבות
##יימא
ושלם
לק"ש
ויכוין
ותורת
נקמת
מירושלים
שהכהן
ישכב
ונקה
בתירוץ
מאירות
ליס
מקדושת
לכפור
מעכבות
מרבים
שמעתין
זמה
ח"ד
מפי'
##פתם
דאכיל
למקבל
מאכילה
שמסיים
##לוהי
המשקים
דחזו
ובש"ס
בירר
הגזבר
דלדברי
המנוחה
הקדימו
דשוב
וצונו
ננ
דמין
דקדושת
ניסת
עניינו
וברח
ששייר
דאהלות
לשלוחו
ד"ט
חלוקת
לקודש
##חתת
מספרי
עתיק
##מוט
שבאת
העברים
הסולם
ערלים
למשא
עתידה
סמכא
בבה"כ
ונראין
##ר"ר
מב"מ
בלח"מ
למיעוט
הצלה
עט"ז
הקלקול
וגוף
האמורות
קורט
ונפלאות
תות
##צורך
בועז
לשות
והעיד
##דריגת
ככרות
לאיתויי
לפלוגי
ש"ו
##דוהו
והתי
לעונש
ואיבעית
גירות
ובמר
ולפום
ודגים
ודבק
##קראי
בלבבו
נלפע"ד
##נדר
המסור
##ובאה
הילוך
מדקא
מבנין
שווים
בלינה
##חלתם
##קשט
והכלל
##נט'
וחוש
שנאמן
שחשבו
##גהו
ועומדים
ולקחתם
תורתי
השפעה
פי"ט
להקדישו
לגדולה
##לפענ"ד
בשוב
והבו
ליהודים
ואחרונים
נעול
באורח
וניתן
זתים
עט
אושא
בשן
הגנוז
הלזה
הכריח
נתפרש
אשמע
ומובא
האמיתית
נ"ר
שזר
##קיה
וכלא
המקיים
הנבלה
בביאת
##מליא
##נקם
לצרכו
שנשתמש
ואג
שערה
חונן
ולהק
והרגו
שמתיר
ריחא
נכסיה
בחוק
הקולות
ממקומה
המופלא
המוקף
לסחורה
הברור
##פרדעים
ההוד
##סוברים
ומסירה
סמוכות
להפריד
בשקר
מתנבא
גמורין
מסוטה
בתשוב'
ובזכות
פדוי
בהפ"מ
.✭
אברייתא
בחורב
מרמה
המוזכר
ולהניח
אנד
נצרכה
ושקיל
##קס
להוליכו
ולשו
מעיו"ט
עדי'
כשעושה
ורמ"א
פנימה
ימיהם
תבנה
מתיישב
הירך
והסכימו
שופרות
הבע"ח
עכת"ד
גגות
##פיך
שלט
בשבע
מיפס
בריטב"א
דחיוב
גרמי
חוליא
חברון
דפתח
הטוען
שושן
שלכן
הנצח
דמפיק
בבואו
##פתחו
קראתי
יקריבו
צדדי
המעור
מהרמב"ם
מנהגו
אאע"ה
מחשבין
לצרכי
התקבלתי
דנתן
הפיל
למרום
סגול
##יהר
ובירך
ישחט
למדבר
בדינו
מקרקע
מלישנא
מנכה
נוגעת
לחודא
טליתו
הוכחתי
יוב
הרמוז
ויעלו
העוברים
תתח
##--
שהעד
כשעו
שקיעת
חפשי
קנ"ה
דיהיה
מיחוש
שרשו
##ירח
והכהן
השלו
באתר
משורש
מעכו"ם
זוגות
ההגדה
נשאלתי
כדבריהם
מועדי
המסת
הבאי
הנורא
דמסייע
לשכל
##מדנו
דיורין
לס"ת
שמוש
##וננות
ויתע
תלויות
יוציאו
שפיכות
##כנע
##להבת
ובכתוב
##שאיר
בפטיש
שויא
##יתומה
##לבשות
שהארץ
קרובי
שחתמו
דמפרשי
שהבן
הבנת
נתכו
לכלום
תקריב
##מלכה
משפטו
שביטל
האמצעית
זיקת
דה'
ולישראל
שביעה
##יקף
אליל
##כוחי
מקים
לשים
בגבורות
מחוברין
ולדידן
בכונת
ותאכל
הבעש"ט
פשיטות
וכוס
השנוי
וליה
מתור
מופנה
##פלגה
לנשיא
##צריכו
הסמוכים
שהשל
בהבל
פסחו
בראותו
והנך
בפסוקים
בדרכים
זע"ז
כיבוי
ממדינת
תנה
בהודאה
לע"ל
הבעה"ב
החתי
למיש
נאכלת
ולהשת
וט"ז
למוכרה
העבדות
סבל
##טית
ובט
הגבורים
לקרוב
ממיני
מלבן
ויפלו
בקיומו
פרנסת
שחידש
להעשות
הרוגי
התי"ט
כתרגומו
להעלותו
המכילתא
למקומה
החקירה
עצמנו
שתירצו
הטפל
במשניות
חזקים
גובר
דהר"ן
דעושה
הכריחו
##קשים
כליה
שבן
רבבות
להתפשט
וכשמת
מזויף
שלוקח
ואוס
להולכה
כלכם
מיכל
אדיר
להביאם
נקטיה
מודר
ללקט
##ינוה
שאשה
שאמ'
מבוש
מותיב
גירי
ותוספת
המכש
מאכילת
##ופך
עילוי
קיחה
ילקוט
מזונותיה
בכא
##חלי
וה"ט
ומלוה
לערער
נתפשט
אהוב
עזות
עורב
צאו
##פ"א
יספר
שובך
אילנא
נראו
מאכלים
כמותה
שחטאנו
##פיץ
ומכרה
בהדה
ישתו
לחמה
ממדר
מקדשת
תירוצים
ט"ל
נמד
קברי
באנשים
לשקול
בשרץ
צרפת
##כסת
##פיעים
ועוסק
במפרש
עונם
שבתותי
מלאכיו
יסמוך
בגוונא
המבי"ט
32
לודאי
תירוש
המלקט
בהרא"ש
##ציאתה
והאל
כוללים
שמשא
ואבנים
תמכור
כריב
לארבעה
ועור
##טאו
קל"ד
להרגיש
דדה
שקי
אח'
בהתא
##חלתה
מזיו
תעביד
למוצאי
ועומדת
שבשלו
תפר
##ריעות
שבור
ונתב
וש"פ
מגב
ארזים
החום
עמק
גוררת
חמורו
השאיל
דלרש"י
הותירו
ססי'
עיקרי
תשיג
##דתו
האורה
שכיבה
מעלתם
משתמר
דמעילה
להד"ם
מלקין
ליוצא
ללוש
קנית
ומצי
בעובד
בשוא
לדרב
דלח
ההין
המוכן
##וליכם
באומד
התביעה
שהראשון
וירושלים
ואיהי
כיי
##פוג
מקריבים
והג'
השקלים
באלהים
חלא
והמן
וכפל
##מוציא
##ילינן
הרישא
וקיבל
לרחם
מגדר
גזרות
דעדיפא
דדא
חלת
תפרע
וענ
מבא
ההפך
שקרה
בצמצום
##שיבו
מתייח
וסתירה
וכמדומה
משלהם
ועצמות
דאמא
ומשב
ועונה
מסרה
וס"ד
לס'
וכר'
הנעשים
בטהרות
היקש
תורות
##עג
מהכל
וממנה
ולקי
שמני
מחטאת
ממנין
דחיה
תרד
שרומז
הצווי
קירוב
##לוכה
המכס
שעדין
תקריבו
ורבי'
כשהש
מהרח
##כנז
ישהה
החזרת
תוספ'
מכרתי
וידעת
עשינו
השמימה
שבמקדש
שרבים
חיבת
לירושלם
נ"ע
תיו
##פיהן
##יתך
דמקום
דמדא
בג"ע
##סיס
דתן
אויביהם
הירא
שחוץ
במלה
##ייך
מחב"ר
בנשבע
צויתי
לברור
למספר
שלמדנו
להמש
היותה
ורד
מכילת
##סרין
שמעי
וברמב"ם
אריא
דקיימי
המקובל
במדינות
בכהאי
דטריפה
ימלט
שדם
שפשע
משתבע
במתא
ונזיר
מכסף
למידע
יחלוק
שיעברו
שיתע
שדוד
במצב
יעבר
ותחתונים
כתף
בראתי
ראויות
מפרשינן
קליפות
דראובן
דהבעל
גזיר
תורים
##מיתו
והזהיר
מהטעם
בעילתו
##סתמו
כשפים
יאריך
ולפירוש
שיתוף
דדברים
וחיישינן
כדילפינן
בששה
יופי
וקנין
בשבתא
במעו
##דיקות
##שוטים
גאוני
לפרשת
שטבל
ומדרבנן
בפה"ג
צותה
שדרש
##חותם
לתירוץ
שנאסרה
##ירותי
נימו
דחטאת
מניעה
עובדיה
דריסה
לול
קיד
##ריפות
מאריה
החשוד
שעירי
הסבות
##מורין
כמק
בגלגול
ולהשכיר
לקדירה
דיח
לכלים
משתל
תורם
המיוחדים
התלויות
מדנקט
ד"ו
חמתו
מתוס'
##מירי
ומקור
שנמסר
מצער
##גונה
כתנות
דשמעת
שרית
להשחית
הגורן
##קלין
והדם
שאשתו
##רוהו
הנז"ל
הגחלים
וחז"ל
אפרוח
ליתנם
קל"ג
שטעו
וכתובים
הוזכרו
28
בש"א
##וייר
היך
הגמל
וגיד
וגזרו
ממורי
חלקת
גליון
לשליש
תכ"ד
ובברייתא
העתיקו
ונטלו
הלמוד
יערב
חומת
חלש
שתיקנו
מיוחס
שנכנסה
והכבוד
אגיד
וכזה
שהגם
##יליד
##מעא
מצפה
בספירת
לפעל
מיגש
שתלד
השייכים
נזהרים
עכו
החקים
החזיקו
חיותא
בל"ז
נפלאים
איתיביה
וכדפרישית
נמשל
בעניותי
29
כובד
לעמד
הב"ע
##כותה
מלפ
חייבו
למילתא
טהרתו
ומעין
הענפים
החזרה
רועים
בשוחט
ולבניו
המגן
ועתיד
והבין
יונים
##חוות
ראשם
כאוכל
לקבורה
לכבש
אהדר
##מועי'
תובעו
דלוה
כחר
##צירות
לאיבוד
להתם
שהנשים
דאוקי
במליחה
רבך
ונפס
כאל
החמשה
מימינו
דכלהו
צוע
חוקה
דחשבינן
ובכאן
##לימוד
כגר
תקחו
דפחות
ישועת
השפעת
26
וסתמא
חרבה
מכונה
עלית
בה"כ
מסע
וחביריו
שגורם
פתחא
ומקני
הדופן
במיני
שבטו
##כתך
הסט"א
בצלי
מוקפת
הפורש
ופור
דחצי
שיודעים
משלשים
דהרמב"ן
שהשמיט
##ככם
##קעים
בהקב"ה
היכולת
בקולי
די"ט
הטבח
אסא
תשאל
לחלוטין
בוא"ו
אכולהו
חרישה
##חזו
ובעד
רי"ף
חוצצין
חתומים
בעצי
לשמך
שיכלה
בזכרים
ומשמש
דמהאי
דלילה
הבתרים
תזכה
נכללו
כפיר
צמחים
שבשבת
בגולה
שע"פ
שתלוי
שחפץ
כחצר
לשוכר
the
יזרע
בהצ
לישה
לחלב
וגוי
##יתאה
תעזוב
מחמירים
בסוגי'
ובאיזה
##ינויים
העוסקים
מערער
ליטמא
לחמור
מחכמה
מיכה
במשקין
וראיתם
משתמשים
דקאמרינן
זכינו
להכשירו
##נטי
##קתם
ועדיף
ולעתיד
דבכור
ונתבטל
בחדושי
ההורג
ותלד
בי"ג
המשורר
שכלל
עמוני
והשנית
נגנב
ואביהוא
##פולי
מה"ש
מי"ט
וקבע
פקיד
שהיית
ועשר
ועשרה
רביה
בחלו
לדעה
שעשיתי
שישים
הטבל
שחרב
דפטר
שנהג
נדיב
תביעת
ומאמר
ושומר
היוצאין
ומוד
לחינוך
עבידי
תשק
השובר
שהעיקר
יורדת
נכתבה
באלכסון
עסקו
באחריותן
במרום
צמיד
צלע
מימים
תבואות
חומשי
המעי
בשלי
##חויה
מלכה
יעויין
בנימן
דממ"נ
ייחוד
רפה
בעובי
דה"ט
דהראב"ד
ועץ
ורשות
מרחק
ויעלה
ספראי
ושארי
וטריפה
והפך
אשר"י
שתנשא
לרש
והאם
לזריעה
נצחי
והבאת
הביצים
התגברות
שזי
לאוה
השראת
ול"מ
התענוג
שע"כ
דעבדי
ואיפשר
להתגלות
מצווים
לשלול
שנתערבה
ווסת
קברות
##ולא
##כפרו
הנדרים
החדר
ויגיע
הכפורת
למשקל
לשבט
פתוחים
למנצח
התה"ד
זוהמא
ובמרדכי
ול"ק
מעמך
בסעודת
בחמור
שמירתו
הדרו
מכורה
##טיפת
לנע
וכדלקמן
מראשו
להתאבל
בזמנינו
לתובע
עיקור
לאהל
מארבעה
בסייף
שתמיד
##חזינן
שיתברר
תבואת
נידוי
אריות
ג"ה
##זוי
המחין
ועדין
מפלג
שמעי'
##לותם
אביכם
הארכובה
נתקיימה
והשבתי
ותוהים
חוקי
כבראשונה
לאסת
ולבא
מענה
היחס
מתנאי
היהדות
רווח
והאש
מגין
בצק
##כניע
שסוף
תפשוט
המוריה
בצאתו
##בתה
שנפטר
ונביא
מסביב
מצוך
תחול
מנוקב
לדופן
מיראת
ולחומרא
אפל
##נויות
ונחזור
ממצ
הסמ
בנ"א
שיביאו
יותן
##יבלו
דאמ'
המ"ל
##יקול
שנתה
ונעל
ושדה
מפניהם
אשריך
בצנעה
שהאמת
שיבנה
יתבי
וריח
וביר
בחיבורו
מפנין
הזוה"ק
המתחייב
עמלו
מודי
ממים
##טוס
לבורא
לבטח
בגזירה
שע"ז
נחשים
לנעול
קורקוס
הבחנה
זיווג
27
הוושט
##וריך
ירגיש
סותרין
בינתיים
כיבוש
שמוציאין
נ"ש
##כמו
בחפץ
החולק
וישן
ור"נ
דתנו
נקראין
להמלוה
מתחבר
בתערובת
ונכרתה
טופח
##צבעו
ובגל
לקהל
ידין
ששכרו
לנוכח
עבדת
ערלתו
שדינן
הדרת
##כנתי
הכהו
##כ"ז
##קתי
לידים
שלקחה
בשמעתא
an
לטומאת
##קלוס
##כיחם
ונדר
בחמי
ברכ"י
שילוח
וישתה
שפך
הפקיר
##יימי
החורף
בקרבי
וחפץ
והתר
ונדחק
המלו'
ופות
ל"י
סיון
והמעשה
הממשלה
ולמש
לקים
לקרן
נקמה
אמם
בראובן
בצדה
עיינתי
והמנהג
השביע
תחב
להודיענו
השותפים
שנק'
חרבו
לטר
ובחר
מעיל
מאם
לחים
כד'
לכלם
לנתבע
דחוששין
בגדיהם
דלר"ש
והמשכיל
דראשון
##גדר
איפשטא
למכרה
##וקץ
מלואים
וחשבון
תקף
תוכחת
דחב
מעשהו
תרנגול
למדריגה
אילונית
בתבואה
וזרקו
משרה
##ינותי
המזרחי
ומחייב
הקפה
אזוב
סוכת
ומוקמינן
מחוסרי
לצו
הארבע
ומקשינן
דמפני
בגת
ארחות
זמנם
##ווה
ולמו
ונשיא
דמכח
##מורי
שהתנו
ימכרו
מזוזות
עמדתי
באתרוג
בשיעורים
פית
להקיף
המזו
בעינינו
בהלי
העזים
בחפצא
ממנהג
עו"ש
דשן
שנתתי
שהעמיד
אויבי
ממתין
קינוי
##פוה
מע"ז
וקרב
קיימינן
ומחשב
בלבבך
חמורות
לעניי
שיאכלו
גידולי
##נ"ה
הלח
##גיית
ששואל
לנכון
וחסרון
יגר
לזרעו
ש"ג
##מ"ס
הגליות
דל"ח
מכובד
דינרי
גבורת
הרהמ"ח
הנטילה
מחרי
ההנחה
דחקו
הפרקים
רצועות
ולזאת
השומעים
סות
במיוחד
העלין
הנגלה
אוכלי
דיבורו
מעלייתא
לאסוקי
נעוץ
החזירה
כשחו
מסוי
לתיאבון
כתירוץ
בריות
##פרית
ובמק
הבריא
כדאמרו
רוקח
##וחה
המשאיל
לבעה"ב
מחולי
הכליות
פעמיים
בטן
לזוז
מובהקים
נגה
סרה
##זכרו
דתלוי
ומהא
לראשונה
##פליגו
הית'
ובטוב
דבקים
נתקנה
פסיעות
ביחזקאל
משתלם
פלגי
ונאבד
כיו"ב
ריקנית
ולז"א
מזרחי
כעומד
ומנחת
##מעאלים
ישפך
הגפנים
דשמעינן
ונוכל
להדבק
משיבין
ג"י
עישור
לאזהרת
דהדבר
מעבודה
מאורות
דמגו
בגרושה
כדור
##פתחות
##פונות
נה"י
ויבואר
ט"ע
וכפי'
##צטרופי
ובנימין
וקונה
הצריכים
לכבס
המכסה
ולבונה
שנפסל
מתפר
##חדה
בנתיים
שלומד
הפסולין
מהימני
לנשמה
##לשו
וכמעט
להתב
המקל
האוסר
##מיתות
ונפר
שמטה
הדד
וקור
בנשואין
כרים
יחש
ומובן
נטיעה
ברביעי
חבורות
שביה
העברת
ויגע
לנדה
##טולי
##מעין
בשלחן
כאשתו
דרכך
סיפר
33
תט
##חרון
##חיתו
##ליחו
ושיהיה
והר"י
הכרס
שהמצוה
והיותר
שעומדים
התאוות
מגיעים
בעולמות
לכותי
ימעט
בעיין
בגדו
דשלב"ל
נשמתא
אדלעיל
תחתיהם
ענפים
והות
##פיחה
דאבות
ישנם
##ליפו
דממה
שיכיר
נשיו
##זיז
שדן
דבאו
הרחב
צלול
מוסיפים
להושיב
תשבו
##ירתם
דאמת
כלבים
שנבלע
בגירושין
דהאומר
טומנין
מזוג
המלכיות
וכדאמרן
ובפסוק
וש"ך
ויצהר
ההכנה
קטניות
כב'
דידך
מפקיד
שתביא
הנערים
משערינן
ננס
ציו
לא"א
ולנו
דביה
והרוטב
בחדושיו
גרוגרות
חבלים
המעין
שלכל
אתת
משאת
בסחורה
בפתיחה
שמחזיר
##ברית
דעדות
##בודתם
קל"ט
שאומרת
השמיעה
מתוקמא
כורת
ואמ
ומדות
דברות
כנפיו
לציין
שורף
לטובתו
אפרי
נוגה
מקראות
בערבית
התהלך
בכתיבת
גיי
מהדדי
##חטיא
יושביה
דייקי
ניקבה
דמהימן
זמר
##זנים
##יב'
הקיר
אלקות
ההז
פתחה
ואבירם
אע"פי
דשינוי
ואיצטריך
שיעמדו
בשומא
##וררין
##זבחים
ליוחסין
יוהכ"פ
שימצאו
ואיזהו
עמיתך
ואחות
לגרוע
לגזלן
לגנוב
הוית
##כבס
ממשלת
תשל
תעבוד
קללת
##צטרכו
צדה
בשיט
זוזא
וקידושין
ופאה
שחורים
קאים
וברוב
##פסיקא
מאתנו
חמו
##מכים
##מייתא
בכללי
שיחין
כשנתן
דנדר
קמ"ב
מעוט
דראש
הצרפתים
זנב
כחל
והשי"ת
שהחזיקו
בעוה"ב
המוקדם
##קרת
שרצונו
מגומגם
אבד"ק
להגן
ברום
ברבו
סתים
וע"ק
##איך
התיבות
בתראה
הד"א
##ופף
בכפל
ומשפטים
לחלוחית
כשעורה
דאורחא
ללילה
קמץ
רעת
##גנוס
##מירא
העתים
למלוח
החותם
מסודר
דנכרי
ופשיט
##בירתה
ופרח
תחנונים
שהקנה
שלפניה
טיפת
כבא
והפס
ועפ"י
בר"ס
הכפרה
במעשים
ובה"ג
גמורות
דבש"ס
שבלע
שזוכין
הטיט
##רבעת
השני'
ולראות
הרחק
נתקשה
לגט
לגירושין
ביצ
לרשב"ג
למשפחות
נפשייהו
הזוכה
הציור
ורישא
##משוך
דשקלים
משותף
עריס
##גשים
בשכלו
דהפקר
מעיו
בהתגלות
##פארות
ומזוזות
ירעו
שבלי
ואכ"מ
בפרטות
בשבילם
גורמים
פקוח
המ"ם
הנחלה
חיטים
שווי
טעונים
וזכו
דסלקא
המועדות
שרפה
דדינו
נסע
דרוצה
מסוכן
שפסול
בעליונים
בתולות
ויפול
שמוסיף
מרויח
תריסר
שיחיה
פטרה
דפסקינן
לאלהי
אזהרות
##סקין
##כינא
והיין
שהרש
מש"פ
דבעו
##כבין
לנזירות
ילפי'
המאורע
עשרונים
פשעי
ארי'
רל"ב
דאמוראי
וכונתו
משמאל
מוחלין
וגבול
הכנף
לר"ג
אהובי
שחבירו
בטבל
השכחה
כדרכן
מדוייקים
ח"נ
##פדת
האלוה
וגזל
ושמרו
חיצון
לקלקל
קצף
עבידא
נשתעבדו
לעולא
חקירה
הכוללת
בנסיון
והקט
##תוחות
##מידם
שכ"א
מיחשב
בכיוצא
דדמאי
המצרן
אהבתי
נבלת
צאי
רמו
אוף
במטבע
##ליצת
הקציר
שנטלו
ראהו
למגזר
מקפידין
מבלתי
אפשרי
פעולותיו
וזבחת
"...
##פותו
בעדם
##ליים
##חייהו
הגבה
ודיני
##ירוצא
ושבעים
החסידים
##זוזטרא
##סמת
לעסק
יומתו
ולהרמב"ם
שנתגלה
והר"ב
וכדפירש
קנינו
תוהו
##זלת
וע"ב
שעמדה
כרשב"א
להתחזק
נחמד
נחשבו
יחיו
##ונך
ויקשה
נמשלו
דחוקים
מטעמים
נבראת
והזמן
הרחוק
מתנו
בדיל
##תניתא
לצלות
תה"ד
המעמיד
ופרשת
שיקיים
ובדעת
נחוניא
להיש
##ידון
בהדרגה
הצואה
בראותם
אינני
שלישים
לשבור
מחלקין
משבעה
##נעת
##יננה
וכופין
האופנים
ומחזיק
יענש
מסולק
##בורג
נפדה
דחמיר
גזול
ענש
תחשב
נזכרים
התבן
שיזכור
בשתיהן
המדרגות
אכי
קצות
לביתה
הנזקין
לחכמי
עצמותו
שונאי
##צוני
הזית
לזונה
בתערובות
עגונה
אנדרוגינוס
דגדול
קשין
##ti
לאלף
##פיכות
המגלה
ומגן
דממון
לקצת
ותרא
שתעלה
##כסיה
סק"ט
הספקות
דטומאת
##נחם
להביט
בהגעלה
דקרו
כחלק
שבקינן
הבוקר
הבטיח
הגמול
בחצוצרות
כאין
עצב
דשלו
אההיא
שילם
##צינא
איגר
בחשך
ושמתי
טעמם
עוג
מקדשא
לאלמנה
בטבעת
נפו
בעקבות
ועבודת
מעידה
שמט
ותפס
וצער
וספרי
נשרו
וכשיש
סותרת
פתיחה
להטמין
40
צדיקי
בהה
הת"ק
ותפארת
דמיעוטא
לנכסיו
נהור
יסודי
ושלחו
הדרן
וליתני
מעורבין
שכתיב
יזכר
מגדים
##פעות
הרשב"י
ורשב"ם
##עוטות
עיגון
משלמת
חרדל
ולוקה
וטהורה
להקי
בסל
ושפחה
מקולק
שריפת
נעדר
והחכם
פועלת
נפקד
קנוניא
הבחינות
היתרא
וברך
קטו
##גף
הדינר
מחמרינן
עוונות
נקיבה
ברייתו
שנתכוין
עיכוב
משלמים
מתיבמת
גביא
פיהו
קערה
משחת
העירו
התלוי
##קיפין
לרצות
מרש"י
להתגרש
מצותה
חובתן
חנ"נ
בבאור
מחלוקות
חצאי
צדין
והצל
##מוהו
למור
וישלם
##גילו
להקדוש
זיי
סופן
קרעו
המטמא
בשקל
ועשאו
משכנו
הפכו
רוממות
##ניחוש
האוכלין
קיבלו
סעדיה
35
ירים
שהונ
ובנותיו
##עתים
מא"י
ופחות
שריר
החוטין
דנאמר
לגאול
מכילתין
דשת
##חזר
שהכה
לחיה
חילוף
##טלם
אשל
יקרבו
##נסי
##נטו
ואיתי
ואלין
##ילכתא
ולדבר
בידיעת
ופע
נבואת
ציית
בחותמיו
ויתא
יקב
שהפר
הארוס
ושבר
ושינה
##טאים
פסיל
בלשונם
דעני
דמיחזי
כסבור
להשמיד
לידת
זכרונות
פכ"ה
כ"ף
לתיקון
יועילו
##ותרים
לשכב
בבשרה
ורמב"ן
דשכירות
##ריב"ש
שאל"כ
המקורות
שהוציאוהו
ורוחב
תועבת
זובח
טרו
לאג
דאפק
לקנו
מיטב
בגופן
לרבינא
בנוסחא
עילה
אמון
זכרי
לסיפא
סביר
##עבות
ועופות
שבפ
ושטיפה
ליהרג
לצוד
שכרך
ימינא
זרעם
##זרעך
בדעתם
מהרשד"ם
אגוז
שלע
אתחזק
ולקדש
לבתי
אפיקור
כדדרשינן
למילתיה
דפוסק
טרחו
כפירושו
לטבילה
הקטנות
חביריו
תגע
##כלוהו
שאסרה
דבורה
לבכור
אות'
ליך
חילא
שיחזרו
ההדיוט
##חלפו
##טייל
ונושא
יפחות
יורשת
שהשכל
וכה"א
בפה"ע
רעותא
ילב
כלליות
משמא
מקר
מחסור
כשכתב
בנזקין
שחורות
##רשם
אורז
דיו"ט
מחלקים
אגוזים
דיאוש
ששאר
משג
וחב
בידן
שקדמה
ופוסל
דכתיבנא
נזרו
הרצועה
אקב
##ריון
והלוים
שלדעתו
בעצרת
מתרצה
מלקוחות
ויצטרך
לכלות
במשנ'
תרגומו
##צחו
באוהל
מחיוב
יעבדו
שוע
וחצר
סיג
תקס
חלצה
בטלי
באימה
קורבה
דטעמו
דנוטל
רמא
והקטיר
##דונים
בנפל
קל"ב
חלוץ
להוראה
ג"ט
##כשל
דהקשו
##תיי
דקושטא
שניטל
רובי
נבעלתי
אחיכם
הרחבה
הזווג
העקידה
##טפין
והבר
הלש
הראייה
וז"ס
כרשות
כונס
כתובין
ומילה
שיועיל
והתנה
והתשובה
וכדאי'
בכתף
דפשט
##ברנו
מעטים
הקיבה
אזנך
כוח
דמשק
דדוד
ובהכרח
חרשת
יפטר
שמי'
קצרתי
זולתם
דמשו"ה
דשר
##מבד
##ואם
והכהנים
מהריב"ל
הנלע"ד
שנדמה
לקשור
מרת
למרא
##קיימו
ונמלך
דכס
לנדון
כפשוט
עזרי
דלהון
דט"ס
וירושלמי
כרוך
##נינות
##וררים
שאותם
הר"נ
שיבר
מכסין
דומי'
אמירתו
ועזריה
בנדפס
וכותבין
סנפיר
כפרים
המלות
##ושק
משוא
##כונת
##כותי
מיפלגי
כרותח
##פוע
וס'
##לחמת
והעיר
גאות
ארוס
דיניה
שבחצר
להבעל
להשל
האלקי
הנמכר
הכ'
בכגון
דכדי
דשטרא
שחב
דחס
בשוקא
הבתולה
ונהנה
נאכלים
לנסך
וכיוון
מדל
רו"מ
שרטוט
וכדתניא
הרוחניות
והמוכר
דזימנין
כער
לנה
מדייק
##סאי
מקפידים
דקטנה
נהנית
המתין
שאוכלין
הסתירה
דלמסקנא
##חיו
##el
וביא
לבילה
דכסף
לציבור
דכתיבי
בנוסף
בטלין
ממוצע
מדאורי
##נגולין
באחדות
קבורת
דבטלה
יאודה
והעולה
אמונתו
המהרי"ט
ותרומת
נלחם
##ה"ק
ומחר
הגויה
עבדה
תעבד
והמפרשים
עזבו
ובגוף
קמיצה
ליקרב
התקיעות
##נבאו
##בררים
##ישם
ומבאר
שמ"ח
דובר
שפירוש
ענינה
מוחזקים
ממלאכתו
קופות
שהיד
איגלאי
הרק
הד"מ
ושחטו
בג"ש
הביאם
אילין
חמשין
לדחותו
מתרצים
##לקיחה
לרעות
להנהיג
ובשא
שנסת
הכנת
בנגע
לכתבו
כגופו
והשליח
קריב
להעמידה
ובר"מ
בחייהם
שספר
ויבש
המדינות
ותיכף
מעיזה
סרוחה
:,
צוארו
##חשיב
כשרוצה
דנשת
השלימה
##כאי
##משכן
לחודה
##עיז
רעז"ל
למוטב
לשלמים
בשתייה
אדר'
סומכוס
מתרומת
חרה
קרבה
##לתה
##דקי
##ירכא
אחזק
שכפר
בסיון
דמחוסר
בבחינה
ותיבת
דנחית
נפטרו
הארכנו
נזקק
המצניע
הקים
בחצרו
לקלל
##רהם
למידי
אהאי
אנוסים
בתוכן
מצומצם
טבעית
מוסרין
משכנות
וכשאין
השט
ועפ
מעכבים
למטעי
##שיים
דמפק
מפירש"י
ההוראה
כנענית
למעלת
אנפי
לגבייהו
שסוברים
תאומים
##מרך
החליף
דל"ה
לאומרה
לשאינו
ושונה
שכונת
הימנית
בבנים
לגירסת
##נסוהו
בנזק
יבשים
כתובו
שהגוף
##לוגתייהו
המודעא
שאחרים
לחמץ
בטבעו
במל"מ
גרושין
יטלו
הוכשר
נחסר
תקרובת
##דקק
וצרף
עגולה
הכתיב
יכבד
והפריש
לבריא
הרגישה
בחב
ליפטר
לדידך
להוצאה
בראי
ובתנאי
ולבנות
בעדותו
פורעניות
מגרשה
לפוסלו
ב"ו
ככתב
##די'
באג
אלשיך
בתחלתו
הסנה
נוטים
שג"כ
המתירין
השיטות
ודבריהם
ועכשו
הכניסו
גת
זזה
##פלאות
ואינהו
וה"ג
דאנא
מד"ת
לחמם
ניטלה
יאמין
##צוה"ח
מיו"ט
פלט
שמרמז
גה
נפיל
פ"ר
תחיל
##וריא
מעתיק
בחמישי
בנג
חומות
והאוכל
##כריחו
המאמרים
ולולא
יכנוס
##וריו
##ניתו
##לוקים
להבה
דאצילות
##מעאל
דמיהם
ממשמע
שגוף
##ונ'
הגדיש
שולחנו
יכשלו
ובתח
דהור
הגזית
ליפות
פרצה
כתרים
בזכר
##ינתן
חלקנו
##ענוגים
המאכלים
מתחלפים
בהקדמת
עפמ"ש
ליראיו
ששתה
להטביל
##זהירו
ובורא
בעצים
בהוראה
ונחתם
ורחץ
לישיבה
בסייעתא
אמוראים
חתנות
ממשיכין
הסיפא
מירוח
##יננא
העז
לבועל
שמכ
הסוף
שקולה
כחץ
יראתו
קמ"ג
כפשטא
לשרה
תעו
##זיב
באמור
המוק
הנהנין
כמנהגו
ער"ה
קל"א
פו"ר
בעצמות
ונקדים
קושייתם
למלאכת
העניינים
נתקיימו
בשכרו
דבנ"ד
ונשב
וגבוה
דלרבא
כותלי
קביע
נוספות
הנאתן
נסתרה
המושג
סילק
אחשב
כיסו
ונפלא
מקדוש
דקנו
ויחזיר
##גדף
לתלמוד
לתקוני
יבקשו
דזכי
קנייה
מרה"י
דיניהם
##צינו
והמצ
ולמ"ש
לעפר
לקברו
שיגרש
ויפטר
וקרע
הוי"ו
אצטרי
חכ"א
תפיסתו
מוציאו
##נבלה
נזד
שנשחטו
שהרשב"א
בנתים
ואנוהו
ובביאור
שהבית
בימיהם
וסמכו
מזונותיו
במזמור
בדוכתא
קוב"ה
פשר
רז
##מוי
אונא
שבצד
מצלת
החטה
נקודת
המשחית
אילים
אדומים
בחומץ
בעצמותו
שידבר
תדבק
הגרי
מק"ק
##חדשו
דעולה
שקדשה
בראשונים
החוטם
ומעט
קנסינן
וזוכה
נפשותיכם
לדונו
לדוכן
תינוקת
הדקין
ושניה
לשמאל
הסכמה
מסביר
כגי'
וברכו
קוראין
ונסתלק
וחיוב
##קאות
ביוסף
##טריס
מיושבת
במוקצה
ותבא
##יכל
##טורה
##ורתא
ואנה
##שימו
המובה
המופת
שחטה
##צריכה
##כנה"ג
##מסס
בקרבם
תאוות
כמדת
שאולי
הרכבה
בתד"ה
שמורים
שעובד
חכמי'
בישל
שהמקום
ריטב"א
##קרבות
בנטילת
##צמות
שהתה
דאזל
שביקש
בנינו
והשניה
שהתחילו
המאיר
האיסורין
דפרכינן
גרועה
בהספד
לניזק
דאכילת
דאחרים
למחזיק
בבנו
עונים
ולהנ"ל
גוון
ויתיב
בכולל
שתחתיו
הושענא
ימיה
ומקיים
וקורה
ותורתו
לתפילה
דתמן
תוכות
##קשרו
משתמרת
בפשטות
ומ"ט
מפליט
הזול
והרמ"א
גומל
באוצר
חש"ו
##קלף
מחויבים
נדרשת
שנגמרה
הטהורים
##ורגמן
הפוסקי'
זוהר
מלעיל
מפירוש
כרכים
וסותם
##כסדרה
ושוין
תמהני
חוטאים
##פשייהו
ללחם
ובכח
וערי
לפקדון
מבטן
ומרים
הטבעית
מובטח
הצלמים
תשיך
בעש
שבלא
בדידיה
וגרע
ההליכה
יעידו
מנר
שכלית
הנו"ן
מרווח
ביש"ש
כמתקן
הוספה
נתרפא
כהלכתו
שהקשיתי
דמסיים
##בריות
בקלות
במהירות
ויתעלה
הנו"ב
שטבע
אזלי'
בכותב
שקב
תבו
##לי'
השגתו
שימותו
הכשיר
##טאות
דתע
במהרש"א
קאמינא
רעבון
מיניהו
שהאחד
קנ"א
שיגמור
דמכיון
##יבורה
ובמעשה
מתחרט
##פסים
כהנה
ימלך
נושאי
נחשדו
למיהדר
##ב"ץ
##ישבה
בהנאת
בח'
שיפה
אזכיר
בשלמים
צערו
סרך
שבימי
שנדחק
התחברות
יאשיהו
36
מכהן
##גליות
שכנה"ג
הגונב
בסכנה
בדינים
שעבדו
וייראו
דגובה
להתפרנס
מגמרא
##כנסים
ברובו
להפקיר
שביא
בח"ה
לד"ה
וסמוך
דפשיט
גבי'
והמקום
ראשך
יודי"ן
למתנה
נצטוה
יברכו
##מניות
ועיני
בדב
דל"א
שתכנס
דנ"ל
##לחמו
ולפנינו
ערמה
והוצא
מפרש"י
שבכלל
שהבשר
להשיבו
יתבארו
שדוקא
שמניחין
רנה
מעפר
##סורא
לשתוק
הפורים
הוברר
מגלות
להיותה
גיסו
תבעה
והללו
בשבועתו
נשרפו
##יבתה
אביון
וק"ק
שתס
לרכוב
##פריד
המעביר
##נשאת
טבעות
בעבדים
התחדשות
להכניסו
לות
דלזה
אבוא
גבן
שפגם
ובשטר
צדקתו
במרה
בהלכותיו
המבטל
שנזכרו
הגופ
מחכמי
ויוה"כ
למש"כ
מורד
שהנפש
לגיטין
י"ס
כרית
למאמר
ניר
ר"ד
##חסת
##סופים
והבי
##ידר
אחזה
ומיתה
לשואל
שחיל
אדמו"ר
יקרע
גניזה
דבלי
פיאה
השלי
מחז
שעירה
כשכבר
הזנות
אשמו
ופורים
התב"ש
##נוד
מאני
דמכר
למרדכי
לרווחא
בקרבך
אמיתית
ועול
במלקות
התירא
מופק
מאחת
בגג
קט"ז
שלימים
נהיר
למשמרת
שיזכו
והפר"ח
בתמיד
כמוציא
כדפרי'
##טעמים
ביצת
בנולד
מכב
##ומרו
שקרוב
להקיש
כפוף
##מוהי
פוגע
ובחידושי
להשתתף
הטבעיים
רומזים
נשבעה
לקטנים
האסורה
ועדות
לעזור
התקופה
עדשים
הראשית
##פתתה
##כביד
ששלחו
בצמר
שנתרצה
הנוב"י
הגרגרת
##כמתא
##זז
##us
ומערות
אוציא
בקיא
##בקשים
הכותים
וטעות
פרשתי
כרבן
##נום
איכות
לבדי
בחלוקה
וחרב
וסיעתו
שס"ל
ונאסר
רנ"ג
שבידינו
מוכיחים
פותחת
המצא
שכנים
מוזכר
ושט
מחולל
לתר
לקוברו
לרוץ
צלות
##חישה
##שיטי
הדפנות
מי"ג
##חתנו
דספרי
ולהו
שחקים
תשמעון
זכרתי
והמשנה
כונתם
דכרין
תרבה
רבנים
מאתם
בוטח
דיינא
המוספין
שנתים
תתק
ישתדל
ופליגא
ד"
קיש
וכסא
ולחלק
דבמי
הבכורות
##דוס
לשע
שישובו
ביממא
המשכיל
תקפו
דמוק
##כניסין
ולהתיר
להכותו
הידועים
ולהיפך
צופה
מענינו
לשטת
לשריפה
וקדושת
ורכב
נאמנה
טועים
קל"ז
הכרעה
חשובין
להסיק
בנדבה
,‏
דטהרות
קדר
קציצה
##ch
וכ"ד
מתלב
דמנהג
והרצון
קלל
קודמים
##יוס
ואטו
והרה
להגעיל
לעור
אלחנן
בגשמיות
ותשובה
ורמי
##כבך
ממעי
בליליא
הוצאתיך
הריא"ף
##פעלות
והנס
בעצה
בחוה"מ
אחרנין
ברגלים
חזא
דלהוי
דשומר
זכאין
הנוהג
תטול
שהלב
ומדא
התפיסה
היריעה
הייחוד
וגרושה
במשקה
ואלמלא
שדברו
הנאמנות
ומלואה
למס'
פשיט'
הזוהמא
זבת
יכה
שירו
ומורי
בשמם
ועכו"ם
ונסתפק
##שירית
כאשה
וי"ב
ותקרא
למעות
לכ"א
אהע"ז
נענשו
ובפרשת
לעושה
דהל'
הקמה
דמפורש
ויכלו
דעם
לכח
##וליס
##רושם
המעיד
והתפלל
לאורויי
בנתינה
תיא
הוא"ו
העשר
הבשמים
שועל
ורעות
דהאשה
דחבריה
ויעידו
אוהבים
למלאך
דמקואות
בהדחה
השבעים
דסמכינן
##ניהו
##בלבל
בששי
העלים
מעשיות
בגורל
בקריאה
לתפילין
##גימה
ששטר
נשיאה
במועדו
איבריו
שמנונית
שנתחדש
שיכנסו
כ"ר
ישבה
ולצאת
נקטה
תלמודו
מושיע
המסכתא
מתהפך
חידושי
תוקע
חמודות
קדרות
העוה"ב
ונמ
##נותיה
הכנעה
לסוח
גידין
גונב
##יהיב
##מרון
המ'
השנאה
ברכאן
נתפ
##דהו
ליתנהו
במוח
לעיכובא
נתבטלו
מאיסורא
37
אודי
קלון
##צפ
וכלו
בחמש
כרות
דיוסף
סביביו
שטענו
כמדבר
עירה
##פשוט
הממו
הבחור
מאמרי
ליציאת
הדרישה
החירות
מחיר
ור"ה
שהמנהג
זיכה
##מקה
לאינו
שהודיע
העיק
ונבאר
יתד
יעכב
ביסורין
ואימתי
שנתכוון
ובעולם
הרה"ג
דנוקבא
שבגוף
##שועתך
"!
in
חמיה
##חיא
לא"ה
##רוני
אחאי
אוכלו
שמץ
דקיל
לישת
הפרת
תחתיהן
אמתך
הרגשת
דלר"א
דלדידהו
במזונותיה
פיסול
ואפי
המרי
המכשיר
דהכונה
שבדור
העושים
ונמכר
החרבן
ויחנו
היוצאת
נתרבה
##מורא
וחיל
כרמו
שהעכו"ם
לבה"כ
אוקמה
והמעיין
למכה
הוזק
מרצון
מגמ'
עבדין
נגעה
שהאור
כפרת
בקוביא
סהדא
שהספק
בכרך
מלוח
קלקל
השבים
בחדרי
דרגל
יתגדל
בצים
יצירת
כשהע
באוכלין
לאהוב
הנפלא
דבסי'
בהסכמת
נחום
והוליד
שהישראל
המכחיש
בשנוי
בפק
וגדל
כשמב
לחוף
##קנויי
וערבית
ולעומת
באצבעו
בדגים
שווין
דמיקרי
וכדמסיק
מוכרים
ויקרב
עשור
הראויים
ומביאים
הקודמות
בנק"ח
כצור
וכרב
שהקי
של"ה
שביל
דביש
מחלי
נתקל
אסמ
בטוי
הנאמרים
קמב
והגיד
שהנה
ומטר
הפור
דעתי'
##קרין
אסירא
תי"ו
##גאולה
יורשיה
לפדותה
האין
הפחת
דעבודה
בכפר
יחוייב
דפאה
לזהר
שנתקיים
##רתין
תרצו
##לבושים
אדומו"ר
דבההיא
קנ"ו
ונהר
וחסיד
ילוה
יישב
הרמ"ך
בחזרת
כמוש
בי"צ
דכתובה
קדמונים
ולבקש
מעכבא
שהוכחתי
לעשייתן
תפק
תשתה
ולאחריו
שמחויב
עצתו
##זונו
ומהרש"ל
מידות
הטמנה
בט"ע
להאמינו
דשבות
ויגבה
נניח
שהסי
##שרש
מאורי
מיפסל
הסרת
ותנאי
הפוכה
##קהו
והנותר
מלכותך
עשירות
לשאוב
למחלוקת
מהש"ס
יירשו
תמרי
##יובו
שהלוהו
מאלף
בדרו
צריכי'
במקו'
מכחישים
לשתיה
הגליון
שמראה
שיל"מ
תמיהת
שפופרת
38
הין
סיב
##ואש
ומסקינן
##לימא
איק
שנפסק
וגט
מיסוד
בכללה
וכליו
מדאוריתא
שעתידין
חשבתי
רצוי
תחתונה
והגבורה
##רינהו
להפטר
העבריה
##כתר
פסין
דעובדא
שלוחין
##רגש
ופרשו
ספיקי
מדקדקין
בהוראת
מפטירין
##כבא
האמירה
ומדקאמר
גביהן
והמותר
הוריות
חבריו
מו"מ
לי"ב
##פשרי
כועס
ששנו
התקרה
בענייני
יטהר
רמ"ה
ובדק
במציאה
##שביתו
הלואי
שיריים
##נתק
לגבה
למידרש
דגוי
שלילה
נדחית
תפילתו
נשתתפו
וכהנה
סוגי'
ממלאכת
אשורית
מסופקים
לרה"י
דאותה
בהכר
לעצים
שישלח
טובלת
קללות
ליו"ט
לבהכ"נ
ליליא
##נסוע
מזבחי
אומנתו
ישבר
משמן
וגזר
ושיש
כרמים
שחוש
יצוייר
שהוצרכו
כקרבן
שנשאה
שברח
האוסרים
ושבועות
עפי
קנאת
##א'
ואמונה
בהט
באתה
כאבן
דמ"ה
עצמכם
אסורא
הצירוף
סי"א
דתפילין
##זיף
למשכון
ומחשבה
במרח
תלויין
דריסת
ברוקה
פטירתו
בקרבנו
שמלאכתו
זיקא
נטהר
פחתו
והכה
שהשיא
בעצת
##תיירו
העזרי
הק"ו
דק"ש
כולנו
נוהגות
יזדמן
המדברים
שהרמב"ן
מעורבת
שהז"ג
ההסכמה
סתומות
עניה
ק"ך
שודא
הל"ת
הלילות
הוולד
מסית
##טווה
כתפו
המרים
שהשמש
התוקע
דמלשון
להפוסקים
חמדת
שפלות
##יונה
הנדור
ונולד
ליג
כדברים
##בורר
במערה
במילוי
צומת
ולוים
קרפף
השתמש
לייחד
להשהותו
אנטיגנוס
##שהא
אוש
מוחק
דמחו
מחבת
בריותיו
ספקות
כשהי'
ובהת
דזמרה
נמנין
שיקדש
לעלמין
ומגוג
##לאן
ואוה
##ינוף
הגע
בילה
יחלק
ברשותה
##נב"י
ריחו
##פטרופוס
לרישא
לאכלם
שנמלח
יהויקים
כלנו
ומלקות
הנדוניא
וגור
לשמונה
ויך
##חתרת
תהוי
חנכה
מריקה
לשתים
מדעתם
ולכבוד
וכבש
המלים
כלך
ויכו
הנהנה
ויונתן
מהרימ"ט
הנפלאות
שיניו
##צתא
##שוו
ומלק
לכשא
מושלים
אדונינו
ספ"ב
לנסות
נרגש
הלוקין
תראו
דבצ
הדעה
מדפריך
נקנין
כתרי
במוציא
בקומה
עצמותיו
גלימא
זבולון
לנהר
עורו
תוד
##חורות
לאם
להנאתו
ומבין
כיין
דתורה
חכמתם
שמתפלל
שנקראים
הנסכים
דהול"ל
דאיבעיא
הבטחון
הקמת
ודעי
##תובעת
נקיות
מסעי
לתקנת
ובאותה
לשלשים
דכוותיה
תגבה
דחיישי'
ותבונה
ואיתימא
גבהו
ימל
בשטרא
השמא
הסברות
וזכור
חללו
בהוצאת
ממעשיו
ומאיר
במרחץ
ויכולין
שתוקי
מביט
ציין
##ך'
להטור
לעבירה
אילא
לברית
ברמי
ברחיצה
דרשב"י
לרחמים
דאיכ'
מרעה
ומחלק
רפ"ח
לברוא
זריזין
נוגעין
הקרשים
ואותיות
חבירתה
34
אקשינן
##טני
לאבל
הציווי
דפירוש
שבאמצע
מצומצ
הנאמן
דנאמנת
לריק
מתנגדים
אורים
נדבר
##הון
שהולכים
המצב
ולבית
במ"ק
##יעד
איקלע
שנעלם
הדירה
##אמרו
לדידה
היולדת
וקדיש
הווי
השקיעה
האלקית
כעל
צפה
והבח
הלחי
יענו
ולהם
שרואין
שתיקן
נטעה
מהרי"א
נשבעים
רד"ק
קבוץ
זנתה
ינהג
כובש
צלותא
ששבתו
##סיה
ובשע
ובטלה
##כימין
דמם
דמחל
שנאנסה
כבוס
והנ"ל
שהקריבו
ושיטת
יפריש
כברי
##ול'
האבוד
מתמן
דברכה
לשעבוד
הלכתית
ששיע
לפרקים
הפקעת
פוטי
להשתכר
ניכרים
לקרותה
תרעומת
ופועל
לזל
סתימת
שבשל
שיטע
וחמי
דומות
##ריהן
כעץ
שזנתה
דכתבתי
קונטר
אודיעך
לולד
רותחין
##זבר
##רייהו
והכין
להול
להלל
שהלו
המסו
אתמה
בעשרת
בשדות
ונותר
מד"א
מכפי
ואיידי
עירך
שיחשוב
דטוב
טיפה
להנ"ל
לפלפל
בסוריא
גינה
החוק
##רוגה
השפה
הדברי'
דברך
ורזא
נפעל
האוזן
ובסנהדרין
בשעורים
דכהנים
קוס
##כ"ב
הששה
חייה
עוצם
נשכח
קטורה
תשלם
מצאת
ונתגרשה
העלול
בעתיד
שסמכו
נשיאת
ובזוה"ק
מכריזין
כדפירשתי
מבוררת
וכג
ושקל
מקשו
הכנס
##ירושת
מכ"ת
אהבו
דנג
שמועיל
דדייני
ושרה
שנצט
לשמח
מבח
לכשר
שתיית
קוצץ
מקרבך
החמישית
יכניס
קרק
##נזו
והחיות
היור
מקורות
נאום
נסיונות
לידון
נשיאות
ומפרקינן
##מיצה
לבלוע
הנפילה
מקשר
שיפלו
דקס"ד
וחציה
דת"ר
אשלח
קמ"ו
לטעמייהו
##נקבה
פוסלים
לשלישי
קע"ו
חיצונית
ומניחין
ביישוב
האריז"ל
דוש
כראי
שחתם
##יה"כ
וכשרה
ישראלי
למני
שיכירו
והאור
תקל
ממשנתנו
תעשר
ומתיר
קושר
להשתחוות
משרע"ה
בספ"ק
ס"מ
דמכאן
מיט
בקמח
##ירתת
נמשכו
שדיבר
בצרור
ישימו
בהבנת
מהקב"ה
##מען
##קומץ
ורז"ל
קושיתו
ובהך
הלבושים
באחיו
קנ"ג
ותמהו
חביבין
תכוין
##נ"ט
##רנא
מהרע
ומצרים
מחזקה
ורגע
בצנעא
כחן
##גאלו
פוטרו
המגיה
ותרצו
גומרין
וצאן
##מוכה
בא"ר
דהיתה
##דילה
בתחום
ממטלטלי
שדנו
עקיבה
מאירים
ואהיה
כקטן
ליבשה
והכ"מ
בהדדי
ול'
דבסוף
מדע
אומרה
אזנים
ניסים
גזבר
קנ"ז
אמצעית
כיפר
בתי'
שמדת
יתרת
וחולק
##צותה
לנטות
איתקש
דודו
ויקדש
סתירת
חנק
קניית
לבישה
מיאנה
איו
##בקו
במלתא
הקצוות
##חררה
דרשב"א
ענשו
נרד
ספקו
בגילוי
להתעורר
תבעי
היחידים
דדרש
##re
##מתנו
לבינו
החביות
##חרה
וחזקת
שמאלא
ומושל
שיוסף
מדאמרי'
דכונתו
שביארתי
וכדאמרי'
ויקראו
צלעות
צפונה
ארעי
##מ"ץ
##נורה
##נקן
##יבוס
כאר
לתפור
חובי
ובשנה
דאלמנה
לאחלופי
דיבורא
גשמיים
הצריכה
נייחא
##מזר
להדר
באמירת
הרצפה
ואתנה
##רגמן
בארצם
הרוחנית
מליקה
ואוכלת
שבארתי
39
זיעה
חיד
קרבא
תזכר
מהוה
שבדבר
העוב
לפנותו
בל"א
##בעי'
ורפ
כהודאה
בראו
שגבו
יקבר
ובהגהות
נזכרה
תמנע
חיבה
יישן
##יכו
להפיל
לחנם
דמנא
מסככין
דתקון
מכלים
נשמעת
זבינא
כראב"י
אמצא
תמונה
##נקת
##צינן
וברית
דבמע
##דרשו
לחג
מרכב
עילאין
ענינא
ושלישית
כעסו
למרק
כשנכנס
ועי"ש
הגשמיים
לתלמידיו
חץ
ש"כ
##בר'
##מונאי
##יש"ה
ומנהיג
וביבמות
הילו
ידיכם
שקלא
מידע
דחסר
כשהו
שנתת
שטרותיו
אגרות
המסירה
האשכול
רפ"ג
שהבטיח
דתוך
וולדות
##גנו
##יחא
והברייתא
שליא
לשלא
ותנשא
אזדא
דתפיס
הידור
ליבמה
ומזון
ינוקא
נזהרין
כרובים
##רכת
##פ"ת
ומפיק
ולקרות
משכר
מתיא
וסוכה
חוליות
##קדירה
גופני
ושבים
ריב"ז
להחזירם
מבטלים
הסימנין
לשלומי
לזי
להדיח
וביתו
השלוח
וגופו
לשחוק
מחילת
מחלקו
לגודל
##ביאה
##פשרו
המשמר
במודה
לבעליהן
נמחל
שנגעו
##גלויי
##תארמלה
כבע
##ממים
עד"ר
שיזכיר
נא'
גבינות
המתרגם
במעלת
וראשי
והתלמוד
השמיע
ובמשנתנו
מדאיצטריך
פגימה
גונ
##נבי
##סקים
##סייא
וקברתיו
כהרי"ף
##גליא
הכיור
גוזרין
עליית
ויסע
המותרים
ממלכת
גזי
נסתם
וממון
כיחיד
העיקרי
התשב"ץ
כשפופרת
רוצין
עשויים
הגהה
באשפה
וקראת
ירידת
הדבורים
אכסדרה
ביק
פ"מ
המציא
אוני
כיעור
משמיע
שבטלו
מקלל
כגנב
אלימתא
ובתנחומא
היל"ל
צאנו
מפקפק
ירדתי
למלכי
לאוכלן
בחקותי
תכונת
שפות
העשין
ההיקש
##קיפים
סוגיין
ביניכם
ושעורים
נגרר
ממאן
##ירוסין
##יליא
##קוץ
ועמש"כ
שנדע
בחולה
בוקעת
ושית
שו"פ
##קבילות
והאלהים
כגבוי
בטחון
רשעתו
ושלחה
ולעניות
ופרס
מהארץ
וטמאה
בויקרא
ודש
שיתי
##א"ז
##מנינן
הבק
לישועה
שיטמא
נתנאל
תקלל
בשרש
שהאמינו
זכותא
דבהאי
יגיעה
תזכור
הוצאתי
יהושפט
ועברו
שנ"ל
ברואה
החמורה
ושמת
ברייתות
המוקצה
נחשון
אנושי
וראשית
להשכיל
חרפה
מתרפא
האצבעות
41
והיש
דאשר
מהזמן
דהו'
לשטרא
לרדת
ופלא
שרשים
הפקודים
עונותיהם
וחכמי
חבירך
זמרי
יציא
צרוף
שפק
שזרק
ומפרשים
ישמש
משגת
שכ"ה
יעבד
נחם
##וננו
קמ"ט
הסופרים
לאחי
הנסתר
מחמר
מלכם
ודל
שתחזור
כר"ה
נסמכה
מהאו
והספק
כמותן
ח"ס
ואנשים
ובנ"ד
דהכוונה
בכ"ר
נכתוב
ומהדרינן
להתדבק
שיעלו
מצוין
בכופר
משכונו
לבושים
מתשמיש
מקטר
##צרן
חלוף
הברד
דשוה
אכילתן
מושבותיכם
בורו
יבדיל
לסר
##כמא
בשאל
באדמה
הנכתב
למג
טעמ'
שתיהם
קטרוג
האביב
סק"י
הישנה
דכוותה
מבטלת
שמביאין
יכשל
תשקצו
שהמשנה
דמתה
המרה
יגידו
שמיטת
חפצתי
בפי"ב
פולט
מריב
מהותו
אתרא
השמד
לק'
באייר
קולך
מסהדי
כפשטה
להכא
##דר'
##בדק
בקעה
מסים
שהרי"ף
תפנו
טבילות
סרכא
##בתי
##ע"ק
##טירו
מהב"ע
במור
עכצ"ל
חופר
דאייתי
דמידי
כשרואה
שפכה
ובמכילתא
האלהות
חליצת
לעצמך
מטבעות
נתקלקל
גוביינא
דשה
וולד
##אן
מהמשנה
ובלאו
במחט
שבמק
ברמ"א
##לוקות
וסל
יגור
פשעו
טריף
השפעות
בשליחותו
ומפורסם
וחתם
כ"נ
קפץ
##פדו
דאמצע
הגולל
דמבטל
דמדוע
במערבא
ומחיה
##טרוניתא
ונכנסו
וערך
כתונת
הדבקות
כובע
מטלית
מה"מ
בעיון
בהלל
דהמש
##יקשא
בכ"ד
וחשבו
##פשטן
יב"ש
המתירים
אר"א
שומרין
קס"א
דמותרת
נשיאים
דהל"ל
שנקרע
##כ"ח
וכרת
##וספה
בגי'
הכפרים
##יניים
ורמינהו
##מצאו
דופי
##בחנה
ואחריך
הנופל
ובעיר
וישמעאל
א"ס
כורש
שמשך
אחוי
ומשתה
##פרקת
הערי
וקש
כשישראל
מכ'
לראותו
תתגרש
נבראים
נפק"מ
השגחת
שלב"ל
נרו
##קצאי
השיבה
מצח
בתפילת
שמחייב
שמינית
שתחשך
המומין
סערה
המלואים
פורח
למלכא
המפורשים
גזה"כ
זוהי
פפי
##כ"ג
לאוי
##יבי'
מהמש
ומורא
ולאחריה
לעשו'
הבטול
לבושי
בדידה
לשניה
להתלמד
ירכו
וראית
שיתגלה
שבעלי
ולבוש
וההת
מלהת
דבלשון
דירחא
קורת
מהשל
השריפה
באסור
דהוק
העראה
בכמות
יודיע
##נצלות
לכתיבה
תבר
##ונן
##כ"ט
שהנו
##פיצה
המחזיר
הנם
ומכלל
מסוכנת
מספקת
משפטיך
מצ'
למקומן
כמוהר
##פסידו
הסגר
למידין
וכלשון
ללקוט
העו"ג
נבון
מפרנס
שהלשון
מספיקין
זש"ה
##נקט
ואצ
##לונו
לויתן
יונית
למותר
מחלקות
##טענה
דלס
דע"מ
להועיל
המוני
בפרעון
ממשכנין
חשכה
ובהדיא
ובערב
תפאר
##נקסו
שמקודם
ממנ"פ
##כורא
##יה'
ואחי
המשיך
כיפה
##כת"י
כאבא
לחשיכה
דמיתה
לקרבנות
ודה
ודרום
וקצ
ורג
בידא
גורסים
הבי"ת
הוקם
זמירות
פגומה
##מינם
##ננין
באגודה
יוכיחו
מצט
יכולתי
שקולים
הזהירה
ופגע
כדאית'
##סוח
נסמוך
פורס
רכ"ח
הודאי
##קינו
להלוקח
להזות
לפיר
וקבלת
כתמים
מגזירת
ממשלה
ביושר
הנוס
כשאוכל
##ולחני
מעורבים
הצומח
מליצה
##ונית
##פויי
והכניס
דאישת
וליד
הבעיא
וחבריו
וכלב
##למידו
ולהודיע
פירושם
פכ"א
להחיותו
כסה
לשרות
##יקתו
למבין
יהודאי
##פריה
בפנימיות
ואלמנה
גבורתו
יביאך
שהארכתי
דא'
כלתו
ולקולא
שנחלק
בפשוט
בחצות
##חררת
היונים
נקדים
בנשיא
במהלך
שגגתו
להקנותו
התימה
זקוקים
להזכירו
יתקיימו
דלוקין
עקומה
##ינרי
##מודה
המפטיר
מהז
ובונה
בתנ
##נותי
דקלים
מכשירי
ברירא
הטפה
דורשים
שנשחטה
שצי
‬.
ואזלינן
##מהמה
ומסקנא
באינה
מוקד
בסאה
בוער
החברה
הו"מ
##יהוץ
וחולין
שחציו
שמוכח
תרצח
באומה
שנושא
מראשון
מהיכי
שומעת
בהר"ן
##מבדיתא
##פיכה
השפלות
##דיינים
דלים
מזולתו
נגעי
והעמידו
וירק
הכרחי
התוכחה
וכהאי
במאירי
פצי
צונ
והשי
לב"ב
דקפיד
דענין
ששנים
נגזרה
גימט'
מחשבותיו
וברא"ש
זרועות
ונוהגין
מהתוספתא
##מעים
##מעיקרא
מדידה
כדפרש"י
פרקי
כנפש
שתמות
מכללא
קראוהו
בסימטא
בלבב
דפסקו
לקחתה
ומצפה
יכרת
תוא
##חתא
להמן
התש
יוע
ושכיר
מבעיר
בקרבה
בליש
מסיר
מסלקין
מכשר
דנד
פלו'
שהוזכרו
תנועת
קורעין
ועבדיו
מזכירים
והעובר
דכותבין
חכים
יירא
ניו
שהאל
##ודקין
בעומר
רבעים
הקרע
מתרגם
החבורה
שיורד
##סימה
##גונא
מפרשין
מיתמי
הורצה
קמיבעיא
בקדושתו
לזק
##פי"כ
האיד
ושעה
לקטנה
מכלם
גרשה
הגדל
עקביא
והבינה
דיכולה
למלאכים
נאנסתי
מינא
##לכו
##טנו
שהפסיק
שאיל
דאקשינן
מהשתא
משלך
מתאי
בספיקא
שמותם
ברורות
ושדי
מחשיב
מלחם
לגנאי
ותקח
הפורענות
מר"ה
שקלו
שמונח
שטרח
כשאמרו
דזכות
ומחלוקת
ברבוי
שהגוי
בעמלק
חקים
והפסד
אוכלה
שעשוי
מסב
דשיע
דשמעון
המשפיע
הט'
לצער
שיעיד
דחינן
החוקים
צועק
יחידאה
מועדים
בהגבהה
הדיעות
מאזנים
תובעין
יניחו
יכון
והישר
וממלא
##קונו
ול"ג
שעסק
הכלאים
בנגיעה
וכתבתם
משאוי
ארצך
עייש"ה
שירשו
רי"ש
זיז
לשנותו
התלמודים
נסתפקו
דנות
עיקרה
שהמעשה
ובבלי
ברגלו
ושיר
ושעל
דעובד
וחמץ
##סרם
##גיס
##לותיו
בפרקי
ורביע
וראשון
יורנו
בלבך
מסייעין
גשמיות
מהרהר
סכה
##תיות
החלונות
לשעבד
מילא
וימש
בנחלת
שיעורים
שנתפתתה
פריעת
עשרו
כמבושל
כהלכתה
כעושה
מתוקנים
מהטבע
בחשבו
שעריך
דמי'
תקפ
בטמאה
שהאריכו
יראיו
פלפול
תזבח
מייחד
משתתפין
חשבה
##רא'
להה
##כלם
דאיקרי
למדי
לקרקעות
לגדר
מזוה
כשאתה
דבאין
בשאול
המסכת
בקיץ
בתלמודא
ושעורה
ויזכור
בביאורו
קשוט
##געות
##יי'
בהתר
הקושי'
הרפ
שנחקרה
דד'
דבאומר
דחייבי
נתבארו
##גנים
לאסוף
ומוא
במכתב
דמור
##סתן
##גדור
טוביה
הצבע
נימוח
נעמי
ומונה
ומביאין
בשערים
ונרא'
סמים
שפטים
תמרה
וארו
##יבתא
ומגרש
באקראי
שבדרך
לד"א
ויורה
דל"ק
בקדושי
הכ"ד
ותלה
המשקל
חלפתא
טו"ב
ויעבר
שהשני
טבילתה
סמיכת
משרשיא
פ"כ
השרי
בדש
##דהר
##בוכדנצר
##אהבה
##קיטת
נפטרה
יקדשו
שפתו
בשלשים
השאור
בהתחלת
בארוסה
ישיגו
ולמזבח
##אילה
הגנבה
לגנב
שנאמ'
ובתלמוד
מורנו
הנק'
אחוזת
כדש
תכבה
שהוסיפו
לכזית
בשומן
נגאל
לשומרו
ובהל'
##דריגות
מנהגא
ובנדון
##דבקו
ברחוב
ותשעה
ז"ש
חברך
##ורדא
וכולל
שהענין
המכיר
במחיצה
##נותיהם
מחתא
לגן
##פאות
##קרר
בראם
בראיית
שלטון
מהפסוק
בהכחשה
ישנן
באגם
משמח
משה"ק
כמדומה
שבעבור
##חשש
ובחולין
וכההיא
חנויות
וביומא
דצר
עוסקין
##שוע
ועון
לפדיון
לשלוט
שחזק
תבואו
והבנים
האורחים
לדורותיכם
חסרונו
שרגילים
טח
פזי
רמונים
דא"נ
בעגלה
##ליע
הקרובה
לחדא
פרסי
רובץ
##קשין
והוצרכו
קבלנו
וכש"כ
להשתעבד
##קרבת
כמתנה
ב"כ
נטרפה
צנון
תפוח
##תוף
##מאנת
המיוח
משחק
##מבטי
למיסר
הצע
מגעו
קימה
ימיר
שהשלים
בגדולים
מארצך
דאח"כ
יגרשנה
אזוזי
##בשת
##גבל
בעידן
כיור
הששית
דהגם
איין
הגידו
שעצם
דליש
בזהב
וקרינן
מפניך
לכבדו
חכז"ל
מנעלים
אסו
##לב"ג
יפדה
יפים
שהבהמה
בעונ
שנתארסה
לחב
נתתיך
ותלמוד
כשנותן
יסכימו
בינונים
מהשני
בהקפה
ימהר
עורה
##קדים
##le
והחר
##שוני
מהקדש
שבוש
מתחלל
ברכתא
החור
לקריאת
שיפר
לגבול
בכינוי
מסכתא
גדיל
כרצון
טובלין
מחוברת
ומאידך
לסוחטו
##תיקה
בחושך
##רהו
שיגע
הסכ
הפמ"ג
בכ"ג
##קיפה
והאומר
##ורישו
פיקוח
נחתו
תשחט
שרירא
לטמאה
תמהתי
מלוחים
מלובלין
דקונה
##ra
וכלאי
בשמואל
בזמה
דמתא
שזמן
שהכלי
היתירא
מוהר"ם
##גודדו
טחינה
יכתב
כען
תחתונים
דהמוכר
ולרבא
כאותה
וגז
ממז
ורשע
יתע'
תלוה
##ט"י
חיותם
פרדס
יעוד
כגוף
חסירה
שבאותה
השניות
עממיא
שסבר
הליכות
ונאכל
אלהי"ם
##כשירו
החובות
אכזרי
שחיטתן
דשבועת
היער
##",
בעודם
בחלות
דמצרים
מק"ש
מקצתם
##פלגת
כרגע
##סהיד
רע"ב
ויתקדש
יפטור
מדויק
לצייר
כדם
##צני
במינן
שביע
לפטרו
וסוגיא
ביהושע
קיץ
והקריבו
ויבקש
להדגיש
גריסין
הנקבים
צאתך
משחשיכה
התחייבות
דלקי
והגאונים
ולמעשה
מונים
בסנה
בקצור
נתקנו
##מזיד
שירת
לפרנסה
להד"מ
רשב"ל
צל"ע
הוזכרה
מאיסורי
והרוצה
בזקן
##קוי
רביעה
הכינו
דגרע
##שמישו
השררה
בשכינה
שהצדיקים
לערך
שאיש
במנו
לעזוב
מתואר
מי"ב
ההסתר
דתקנו
דפשוט
אוריה
שפלה
דלת"ק
שתוף
באכילתו
דריב"ל
כריכות
קלב
##יבוי
לוסיף
השחי
##מתינו
הרמ"ע
וזבה
המועט
נגמרו
רענן
דלימא
כמשמעות
הזימון
מ"ס
##ורוש
וכונת
ומ"א
מתכ
##מותא
ומהר"ם
ששמה
ומשלים
שיתבטל
להאשה
מלוכה
קרבין
מלקיות
##מוחזק
לפקח
הסב
קראם
##נערה
מברכות
דוחקא
הוקף
מרגשת
בקבלנות
הנבדלת
חדו
תחזיר
המפ
שלעתיד
אויבים
הרד"ק
מצורף
כדפירש"י
כדבעינן
ותור
כשיוצא
נקשר
נאמין
והאחר
כשהמ
ביאורו
גילו
##כרונות
שהוחמו
הגרסא
בממזרת
##גגת
##דתה
##ככה
שאוס
ועבדי
שבדק
##חוטה
שנגלה
##וקק
מחב
ומהדר
נגיד
במוש
נטיל
##כילתין
השתנות
ולזכות
אחוריים
דפסיקא
טפת
##ישין
ישפוט
וענינו
שנואה
הדיון
ממסכת
הזהרו
המתעסק
תרם
ובהר
בקונט'
להתעטף
לטלטלה
והרע"ב
מני'
דבקות
מתורה
בסמ"ק
נקבל
ידיעות
בריתא
דתשביתו
לסי'
ממשמעות
דחשוב
שגלה
באומרם
טבלא
בגמר'
זבל
מו'
סליחה
##יאוש
וממע
ועסי'
##וביא
במחו
רבע
מחצות
בכניסתו
לנ"ד
וטבילה
לשאל
ולמכור
וההש
הרחיב
תמיהא
לוגמיו
כבתחלה
פקועה
השואבה
במוך
חגב
קיומו
להקרא
ונחלת
הדקל
דמצריך
וחוה
לנגדי
בט"ב
מהר"ל
במחשב
הרחמן
והצדיק
צודק
תמכר
להלכות
שאכן
האפוד
בה"ב
השחין
למקור
מופיעה
בסודר
##צועות
מכלה
מרכיב
קדושיה
תרצ
והנשים
נסעו
סע"ב
נטיעות
תנחום
ומנשה
מתריעין
##____
דטר
רמון
שטי
##כיבה
המגו
של"ד
לעוש
##בדלים
שגירש
והשמן
במימרא
שהק'
והחסד
היש"ש
בעודן
נוקבין
שגדלו
ורה
חבלי
תברא
ואבות
ונתא
מתלבש
שמפסיק
בדה
אבנר
שוכח
שישאל
דערב
לאומן
חיישי
##נעני
אגודות
וחייבים
שנשחט
בשעבוד
תובעים
הטביעה
סניף
##בטחה
ביכולתו
ימה
##וחים
בהפקר
ועמדה
ראם
החת
לקושיא
לדח
הריגה
תקצ
דחליצה
מחוט
תנאף
לקוץ
המדוי
ומציעים
הסתלקות
וישתחוו
פארן
שימכור
דלוי
סלי
הקורות
חי"ד
לפיי
הפו'
הופיע
הזריקה
שיודה
משומר
מרוחק
חקירות
ובקשו
שמותרת
התקשרות
סידר
האפשרות
43
דתוספתא
כעד
ממרים
צנוע
להפרע
ובמש"כ
ליחלק
כשלג
דסברת
סי"ב
עליהון
ארכה
המרובה
דהוצרך
הבהיר
שמספר
בלהה
42
חברת
##חדש
מהרו
ומכניס
במכיר
מבוק
ויורש
כתרו
נדחו
ארוסתו
התבה
סוגית
יתהלל
צפנת
בבואם
ימנה
סדור
ובנין
השיא
משמטת
##כיך
שי"א
נאבדו
טווי
המזכה
לראשי
להעבירו
ובערוך
עסי'
והפירוש
חצוצרות
כתוס'
לאחיך
והפירות
הנגעים
למזיק
לחרישה
##פסקו
ממקומם
##טלין
שוט
##נסא
דעלה
יצליח
ובאמצע
קאמרת
ונתתם
וכדפי'
שדברים
שמיעת
דלהר
הקדמות
ברחבה
במלכים
שנדפס
הקרנות
חטי
שטים
והחזירה
ומעות
ליכתוב
דמקשינן
דמברכין
ודחינן
ויכ
##בראם
תונו
כבתה
המהלך
שותפו
הרגש
שנשבר
זקופה
הנקבות
המערכת
הטרפה
תטה
והגד
והנח
##מיס
לאומה
ירחא
בשעתה
ולערב
##פלוג
לשביעית
רחוקות
פכ"ג
יפקוד
ויאה
מיבם
רציחה
##ואי'
והפק
דהלוקח
לבשלו
שנטלה
מקו'
##כולה
למהדר
ירחי
דבע"ח
בביצים
הבתולות
אומדין
תבערו
##פ"ק
##ינני
והחזירו
שהו'
דאפסיד
וממו
בהרמב"ם
שנשרף
##ינייהו
למישרי
אמתיים
דחזר
תעלומות
המאירה
רצונה
וביטול
שיגבה
ד"פ
טלי
סלוק
בשולחן
שבירושלמי
החתום
מלמ
לתי'
בידיעה
מזהירין
מעליה
להשמר
מפיך
קרנים
לכוס
דיהא
הפרטית
עסוקים
גיטיך
והקש
שהורו
השגות
##ליפת
שנקט
הגש
שבאין
איתחזק
ובהאי
ונתק
##צב"א
שאוכלים
מערכות
יתירתא
ושותין
בזרעו
ופקד
ואשא
ולברר
ונבלע
מתמה
##פסקה
רקב
ותרין
דפוסל
אדוננו
דיוכל
עוזיאל
המושכלות
בכהונה
תמ"ז
##יבוק
ובבהמה
בערבה
##ובדין
לעמך
לעובדי
העלאה
יהוד'
ליחה
שתגיע
בשרם
רוחץ
קרני
צדקתך
חפצה
שאכלנו
לקיחת
והעונש
החשד
שתבע
בעשי
דרג
ארצי
באהבת
שידענו
ואשמעינן
##נוסח
צבאם
שהגיה
פתילה
נפיש
מינן
##גריס
בשבעים
##כימה
מצחו
מפרו
הריגת
דכפי
אשלם
דו"ח
לצבא
שיוש
תאכלנו
שחתך
אחוריו
שבבבל
תינשא
##בעל
ובחד
ישמחו
הנמנע
כרמב"ם
לכלוך
כוונתי
המוכיח
גרשום
הנזכרות
שמחוייב
קמיע
שנגזר
שבגמרא
להפסידה
יחי
והציל
בערוה
שכשר
בדיניהם
וגורם
שיכלו
הכללים
אזכור
ירמי'
הלויים
האומרת
המגפה
רכוב
שיגיעו
והערכה
אכי"ר
גולל
חמאה
נלק
המפריש
לוסתה
לעומר
החרס
##תאב
מבזה
ונתגלה
מסוגל
הטהרות
סוגיית
הקצוב
רחי
לאגרא
שהולד
##תוי
האגודה
דבקה
לבבות
לבנון
וגמרו
ההסבר
שמעלה
דשרו
וסברי
ומתנות
והשלום
ובמנחות
לטפל
חתימתו
מפקיר
ותיקון
ככסף
שהתח
לעזרת
בסק
לחדר
לשיע
דקידוש
דלפי'
חלתה
##כסוס
##נבוס
קניתי
הוציאם
התחתונות
והדרא
דמרבינן
תקופה
בראה
##חף
##יתאי
שתכלה
ואייתי
ובהמשך
הנוגעים
מפרשה
שונאים
שיקראו
חטאי
יברא
נמח
לעשיר
נקלף
פילון
יחתוך
##חמנו
ירחק
בשושן
למשמש
יודין
##רוה"ק
גרונו
ובמשא
שברו
##מלין
##פעים
##מודי
מהש"י
שבפסוק
הבצק
דעצם
כההוא
##גלגלו
ממשות
בטפח
תעזב
לכתובתה
הטורח
פריצות
ממעטין
אג"ק
וכנזכר
הסוחרים
לסוך
יבע
להטיף
בדמאי
ודמיא
דשריא
מזד
ורבנו
כפשוטה
מיתתן
מודעה
דמקודשת
דאסיקנא
כשומר
הנותנת
*)
אזהר
לתוספת
עפרא
והפו
שאפרש
האמר
אופין
##יקם
מתרין
מאס
לשי'
ממלקות
וקידש
לגמר
בריח
לנדור
אדידיה
שמתחילה
ובמקומות
והערב
##גאו
שתהיו
ולבאר
גליל
שהחשיך
היקשא
נבין
צואת
שדרה
להסוברים
דאידך
##בלן
בשפע
ישתבח
מעדן
הקדומה
למינהו
לפה
##נסבא
##יותה
ומועיל
ביוהכ"פ
ערכי
ופרעה
הנרמז
ונותנו
יקומו
##טרון
במט
מעובד
ונחלה
מתפ
בקני
פרד
לגרי
פליט
וברשות
פלני
ובגבורות
חסידיו
נטויה
מחוקק
לאדו
ובמים
שנפשו
בדעתי
החיו
ממלת
דרה
וצדיקים
##צטבא
במאמרו
להתיישב
דפק
קישור
וכעס
וע"א
בחברו
החליט
הנוטע
ולעמוד
והקנה
המסובב
דמלאכה
נמרוד
##סס
וכשיטת
בעמק
השפחות
ולזרעו
מעונש
כאידך
נתגלגל
יעזוב
ותולה
כשעשה
וחמישי
לתקון
##קיץ
חלבים
שמתחייב
ועד"ז
לעבדך
תמימות
באשר"י
לאינשי
##מיטתיה
גמרי
לטהרות
##סטרא
ומפס
ומניין
ונסתרה
מאחריו
מחסרא
דכשרה
ילפי
##כריכין
ממוש
נרצה
כדברינו
חלומות
מבעי'
דכולן
##שביעין
דשות
היתום
תמלא
##רי"ו
וממת
##גולא
##לח"מ
נוטלו
##ריהון
המאו
שנזכה
מכותל
##ואג
שאבדה
היסורים
מתקדש
שע"ת
הפשתן
בנכסיו
כנטול
כוכבי
וסופה
בצורות
ובאם
כסלע
##כניסן
וירצה
##פלוגתא
טיפין
נגאלו
בטי
רוה"ק
שזרעו
##חבו
##נכי
והתוספתא
שנמכר
מחתך
##דקין
תפילות
וליישב
נמסרו
מתאבל
המנעל
בחפזון
הלום
סיבות
תיע
תפקיד
דאותן
##תבייש
בפרוש
שישיג
ותשובת
וחתום
##מודע
ששיעור
תוכחות
ביומי
קנינים
הניתק
אשים
אקח
חפש
יביט
נחוץ
ואפיק
##כירי
בדמיון
ההקדמה
משתחוים
ופר"ח
שבעתים
נתערבה
הקללות
תפרש
דאג
בעמך
התקין
הקושי
מצו'
דמסר
דעב
ירחיק
##צטרפו
באחרונים
בחצרות
קע"ה
וסתות
מתבייש
לסוטה
להמלט
##מיעוט
בהתח
##דרן
היהודית
שמינה
##סתרים
דבריאה
דרבן
ופוסק
פסולו
חשמונאי
השי"ן
תחלוץ
מתחדש
בלה"ק
בחשאי
וברו
פשתים
צדו
##תונת
הממונים
משטר
בחורים
מחזר
בגנות
שי"ח
דספרא
מכללו
לנחש
שחושב
כמלך
כשאינה
##חשורוש
דמעו
פשטות
##דני
##צעו
לאסרו
ובטלו
בהיקש
בחצירו
שמקום
דמצה
דמלת
פרחה
דכבוד
המוסיף
ולהאי
ארד
נגדם
מזונא
בהגה"ה
בהגהותיו
לאהבת
בואם
אראנו
בזרע
תיב
##ינורות
שהגב
ולעל
##מתיה
מצל
לגת
כשדה
דגמרינן
להקריבו
##רביץ
גימ'
המחלקת
ונתינה
##ולדתו
קל"ח
והניחה
מישור
משלימין
דדבריהם
חשבונות
דחוץ
##ספר
##פכם
שלקה
הקישא
מא'
דמחזיר
מבטלו
שעיקרו
שלוחה
נחרב
ממשפחת
שגובה
הדרים
מחייבינן
מלומר
העתידות
במציעא
ויורדים
דזר
דחר
##פוף
והגל
המלקות
ומשהו
השן
התולדות
מצטע
ונגלה
לפש
לשכירות
בגוה
טענותיו
שתקבל
ועלינו
##כלוך
תחסר
להסכים
איבד
שתבעו
המובהק
דאמצעיתא
יחייב
יציאתו
צחות
צעיר
##סיק
וכפירש"י
אוכף
באזהרות
##עה"מ
מחברים
פר"ת
לגמרא
רוחם
נחמו
מזבין
והשג
קמ"ה
דאעפ"י
להסקה
##נשאות
מישרים
הוראות
יפל
במן
מתשלומין
##פסא
##סירי
המושך
דנ"ד
גיזה
דחייה
##פולש
בציור
ולקחתי
ושכינתיה
),
הבלי
סיהרא
לאלוה
##כלול
ומטיב
וביאה
ולכ"ע
בחולו
דמצא
בגורן
יעזב
ומש"ש
מנ"י
ופרה
גירסתו
קס"ט
דבספק
אמיד
יות
כטו
ומצו
מארעא
##בריאל
יעב"ץ
הספי
וזולתם
מנק
מאהבת
גבורי
ואכלתם
מבקשין
חוקים
חרופה
##מקו
מהצד
ומקומו
הקנינים
הר"פ
בדלת
שיפרש
כשורה
עכבר
##מודד
דמוקצה
במיעו
שעומדת
ויחשוב
ופוטר
דיאמר
ודיבור
שיסוד
יתורץ
הספד
מכירתו
מנדה
המעמד
חלוקי
משייר
##חושת
הסוגי'
בקצה"ח
ומעלתו
איתר
גידים
ו"א
חיא
נגיחה
שטת
תכנס
##שוהו
השקה
במיא
הדליק
##וסתה
דתר
תרנ
ומקריב
בהרשאה
פירשוה
חילוקים
אשוב
השום
כנהוג
קיבוץ
##ינתם
בעיל
באיל
במזל
דבעת
דברשות
מייבם
דלל
למיפשט
אלוף
יאחז
נזקו
ליומא
ממתינין
קטיגור
דידו
הלק
חבי
ובדו
ולגר
ישראל'
בקירוב
מנעור
חטאם
שארצה
שארז"ל
דמדלא
וכבודו
כהרשב"א
קונטרס
נתוסף
תפש
##דנא
##מונת
ובכה
במלות
מקרים
כששו
דיינין
אהלו
נשען
ולהמשיך
גויה
באו"ה
והתראה
והביאור
חבוש
בעבורם
ליו"ד
שמצאנו
ומלאכי
כשירצה
ד"ח
ירית
פורת
תרש
##כללו
שאילת
לעה"ב
מתרבה
בת"ת
הדרום
##ביכול
כדיבור
גדילים
שחסרו
ובאות
כמל
נגזלת
השימוש
והקרב
יפעל
מוספין
ויוצאים
בקרובותיה
##ינש
שאש
מהכ
ובצל
החפצים
ויגר
למיטעי
המשמש
##נהגות
שטרך
קמ"ז
ונוסף
יודוך
כעיר
תלוי'
לשבטים
מראהו
דבדרבנן
עפרון
איצטריכא
וטי
חרוב
מולך
##לשל
##ודקים
המול
המשוב
ולכתחלה
מוז
לשמירה
לנבואה
לזב
מינאי
נשאתי
נשארים
שמהן
אילני
ונוקבא
מוקמי
והבנות
מברכינן
מרגישים
##סחת
ומקל
ומצוות
משיע
לבגד
מחנ
דבריש
כשטוען
בנקיטת
נדבת
ומעיקרא
לפרעו
ועוז
##מלאו
חפירה
הנמשכים
האיבעיא
בש"ר
באפו
דהמת
דב"ח
התמרים
לחמך
מיגא
ויפתח
דשואל
מרכ
ופניו
תוסף
הנוקבא
שסבור
הרומאים
בארצך
##נשאי
חותמות
והשלישית
מפוזרים
יסורו
להשביעה
אדה
להלוה
מלחו
זוגו
מסורה
כנשר
גררא
המסדר
אריח
איבעית
ואוכלים
שהדליק
מגדף
המזיקין
וליחוש
"--
פדת
##ואתא
שבפרק
התרי
הנמשל
מתברך
דקרבן
גבייהו
חטאיו
פליטת
במומין
בחיקו
פחותים
שהקדימו
לתרווייהו
חרוץ
ההלכתי
התפללו
ונסתר
בתח
##שאלת
לקטרג
אבלו
נתחלקה
למילה
##שובתו
עשהו
נפשא
משתדל
עקירת
במומר
בהווה
חג"ת
ישאלו
מאליהם
בלעדי
אגדות
החזקות
מרחיקין
ותבע
סט
קדומה
בהרב
דב"נ
ליחייב
מקנא
שיחת
אדם'
לכסא
הקביעות
##בותם
עניניו
ממונים
קמ"ד
הדוחק
דצריכין
פוקד
והנשמה
44
דאמירה
התכוון
למנחות
וימותו
אמיתת
ולהעלות
אדרבנן
השונים
ליתנה
התומים
מחשבתם
לעומק
בפי"ג
השמיענו
ומכ"מ
הערבות
במנורה
בצינעא
קנקנים
וכרבי
להחרים
##רוז
בהלו
לבריה
שכשא
מבכור
בראות
##וגי'
להשני
בהוציא
מתהלך
שנשרו
קע"ז
יקרות
העונשין
כית
לתובעו
##מרח
##ולטת
##לומי
ומיוחד
התאר
שכול
הנפטר
מתחזק
שממ
שמחמיר
לדרי
הפשיטות
בנרות
המונע
ודומיהם
נהורין
במעכשיו
קל"ו
ספ"ג
המקודש
כמתנת
להניחה
וינחם
דעומד
בקטנים
והנאה
להתו
בשלוה
באתם
התנ
ראב"ן
מתנא
וששים
לדמותו
שימה
דקדשים
דשלח
דמהא
והעלו
##קטנה
האורח
לשנותה
והמשל
בתרומות
אשכחיה
פשוטי
מכתובתה
יוליך
תטעה
ועסק
בחלוק
החמר
שו"ג
בנחל
כממון
מינקת
למשכב
כשאני
דבשני
בהקשר
ענוים
דטהור
##ריז
במני
דבכי
מע"ג
הרודף
כאותו
ושפחות
חיטי
בקורה
הכובש
למעל'
שייחד
לנקום
כדאמ'
מזומנים
פלפלין
דליתנהו
עבודתה
ראשיכם
ישרפו
שרשם
נהרדעי
דמסתברא
נזונת
דפירות
טביחה
קולם
כייל
מתגלגל
מיישב
מר"ח
נכריות
לסבה
##זכרות
חזקתה
מצותיך
שפעם
פירותיה
תבואתו
ומדכתיב
הבלים
תשביתו
נדוני
רתי
ואמן
והשבת
##לועין
ולעד"נ
לביש
בדרי
היונה
כו"ע
שלוקה
##סוטה
תעש
הניכר
שעלתה
ואליהו
דאיתקש
ושוטה
שידור
צאנך
ופסקה
באביו
השתלשלות
קפדינן
שמסיק
דנהרא
שהפסיד
אוצרו
השתח
מחמשה
ותלו
וישמעו
כרחיך
וצור
המשקוף
שריד
מניחה
נמנעו
שילמדו
יתבטלו
כפתור
לילי
והיד
להתבטל
##מעיין
ושמים
דרמב"ם
כדמת
דע"פ
דכולם
לכפות
השוגג
וחומץ
האישות
בטענות
ומצוי
הרה"מ
קהלות
וטבח
הקהלות
השמאלי
שגילה
##מיחה
##דימת
שניו
בתחת
בתיובתא
לשליחות
מיג
יתלה
##ירום
מכנגד
##בורי
וחדש
##רעין
##ערמה
מחמתה
בביתם
בשליש
ילדו
לקונה
האמתית
בזוחלין
דנהגו
חיצונה
לאחריהם
יקים
כטל
עיל
פיי
##עשע
וכסתות
להמוכר
בשעתו
##כיים
לבריאת
למ"ה
כארי
מקצר
כשיאמר
##בורית
שליטה
יצאנו
קביעת
נשארת
לטלטלן
שנתעברה
הינ
והבדלה
להבריח
דבחד
לבז
ופטר
שתייה
מעושר
זכי'
והאיכא
יתרצה
ונעשים
זלזול
בחסדו
במנעל
דאינשי
דוסת
פחיתות
##ובבים
בתלת
##תהון
##גדלה
הזיווג
המוחלט
העליתי
לאשמועי'
מועילים
הרוחניים
בצרעת
מבלעדי
דראה
תרב
שהרע
ובשבועה
##ליותא
מעיניו
ברותחין
שימשך
לאוצר
הצפור
דולא
וציר
נחמה
דפ"ב
בגימ'
למרחץ
הרהורי
בודקת
ניער
עקום
##om
לוין
שכרות
ויחזק
ורחימו
##חזן
הפסידו
##גיעו
ומתחלה
האוכלים
ושרף
נבוכד
גלוס
וינה
סדרים
והורה
ומדרש
שבשב
שבגל
ונכלל
מדידיה
לחנוני
מחולק
דרסה
ויחד
דמיגו
ואשרי
אדעתי'
דלר"ע
חשודים
תקופות
בדיבורו
##עפות
ולרא
הגלוי
##טומי
##טורין
וחזי
לאונס
וכתר
הנחתי
בתרווייהו
צריכותא
כמאכל
סס"י
זרוק
##ראג
במתניתא
מוגה
לשורש
ההצלחה
##בעונים
סוכתו
הנהגתו
בצלים
##וגם
חדל
חדתא
קריבין
תפלתם
בשאינה
הקופה
ברבינו
הסיפור
ענותנותו
יעבירנו
יכין
צף
רט
##עודות
והלכות
לבניהם
שמקרי
לחתן
ותחנונים
רוגז
אמנו
נשואות
אדמון
יקדיש
רוחנית
להעני
נפרץ
יחללו
בחטאו
מאחורי
דטרפה
תלבש
##גשת
##שינו
##ודרת
##מאכל
דאסרו
##משמין
כדפריך
עונת
ותלך
הטריפה
לנדר
והתרו
הגה"ה
טפלה
וביקש
מדקדקים
##מבוי
עליונות
כשרא
##טומים
לאוקומה
לתמיד
##גליו
נחשוב
וס"ת
משתכח
מכרם
##נשאו
הפרוץ
דשכיחא
תפוחים
וקשרתם
חזור
חמותה
להנא
מעניני
מחס
מחמיץ
כהו
שקנאו
בראשה
תהלות
##חתונה
שסביב
נתייחד
התעורר
הדיוק
כעונה
הכסיל
מחלוקתם
השביח
דלוק
##ריקת
וכ"א
##מיי
המתו
בהגוזל
מתאר
מאמרים
בחרת
ושליח
בכלם
דקב"ה
הכד
ירחם
רשעה
##גרר
דליקה
פרושים
ובפ"ב
שהוכחנו
ותיק
זעם
יגל
##טחים
דרכינו
בבעלה
פסיעה
בנערה
הכלבים
תרחק
עושהו
בשומע
בגיזה
ברוטב
שבבבלי
לאזניו
מתפשטת
##ידם
מהבית
וליל
לעיניהם
שכונתו
שעמו
שקרב
טועין
דחיקא
##מזיק
כמכר
יושיע
הדרה
נותנה
שנעקר
מוחזקין
בריאות
במלואו
התנופה
ויזכה
וחטאים
ולמימר
לאפרו
עלמיא
במתי
מליאה
נתגייר
ותולדות
טוחן
יקנו
בשבילי
ונאסרה
ויכולים
הגבינה
נתתיו
##צפ"ך
גיע
דפשטא
יגלח
נפוץ
##מבי
וכפירוש
##רבאי
הג"א
מתתא
דקרוב
חספא
חולקת
פרישות
מפרשת
הברייתות
##כלהו
דאזלי
יהוידע
מדוייק
כעבדים
שמרה
תרבות
##ועיין
דבמו
בוסר
כאנשי
ודנין
כדבריך
וחברו
למענך
דנכסי
תי"ט
בפסולי
לטיבותא
ולבש
מושיבין
מהלכים
וינו
ותוך
והדרך
השיע
דבדין
הנסתרות
ונקדש
בחתו
דמסא
מחש
הכנסה
ידיהן
##פשין
הנהרג
צדדיו
יסכים
קיסם
ועוצם
הקדמת
צעקת
מעש'
זדו
##שוח
דבמס
איצטרך
הנברא
יהרגו
הראוים
היוקר
שקץ
וכתבנו
אדמתם
##חמנות
גופים
##זיקה
...".
המדורה
הקצה"ח
ווא
כינו
##דריה
מהעולם
ועצו
##ליעזר
מצליח
ברעה
בדת
דמ"ק
מקרן
לקנח
דקלא
##בונן
##פלתם
גדיש
שתלך
בפרך
חולקא
דדמיא
תתגודדו
##זבחו
סהדותא
הנכנסים
ופקדון
נינוה
רואי
##ה"ז
במטלטלי
שבחוץ
הנפר
הזהירו
ומשמר
במעשי
ארח
כבוי
במומו
בקוצר
וביצה
מחלקי
מעכשו
הוראתו
בכן
ימוש
##טפת
ובמאי
מעינות
התולדה
ליטהר
ושכנתי
מקביל
וקידוש
לתנור
שתחלה
שהוכיחו
מיתורא
הנפשי
ריקן
לגדולים
עאכ"ו
המחמירים
מחמיצין
סמנים
סליקו
##עלו
לאפלוגי
ואבא
עלילות
ומציל
השגיח
משלחין
שנשבה
לימינו
דמטא
מקנין
##כחש
שהאש
החומץ
תבקש
ומרבה
ונשאל
החוטאים
זכים
מינוי
##ס"ל
##יוק
להרו
ומטלטלין
ובגיטין
##קופות
ישעי'
וללמוד
מדתני
דקדוקי
בישין
שותין
ובנ"י
ובפ"נ
האנושית
צופים
##חבת
##דחי
שהקד
מעבירה
מתשו'
מתלמידי
דמרי
לקבץ
דקדים
ההוה
בלולה
##סהדי
ונתקיים
שהתרו
השביתה
שותת
מתקנים
תגנוב
ישבתי
יתעורר
כפשטיה
טא
ערק
##וגו
כימים
מוזהרים
בכש
ירגישו
נדחים
בסימנין
ולקנות
הירקות
מתקנין
בשמועה
דמלאכת
הנבדלים
במילואו
צועקים
##דתי
השליך
דהפ
שנב
מצרית
בתלמיד
בפאה
ומוק
שפחתו
הנאכל
עמדת
רפ"ד
השתדל
טומאתה
ג"ח
פסי
וארי
שהמעות
המדו
מה"ד
בהערות
במפה
שבשו
לחרות
מקפדת
שימו
ויטע
הוזהרו
ורפא
ורחמנא
דסטרא
כגרוגרת
קדמך
תבשל
ויודעים
דזכה
פרוס
דיכולין
הרהר
בגלותא
המותרות
צפורן
העשירים
##קוש
מהלוה
השותה
מדמינן
בק"א
וזולת
שתחלת
##חזת
עבים
כפיה
משומד
קצתו
וטפי
מעושה
שילמד
קפצה
משועבדת
שהצבור
דהגמ'
תושבע
חבירי
פושט
##פכא
ומבושל
באנשי
שבירושלים
##יעוד
התחיה
למצה
בסידור
שמג
לשיר
דרחמי
כשתב
כללים
מכבודו
לנקות
דמשעת
שירש
מטילין
שראוהו
קבלתו
מפסדת
המורכב
ותשבחות
חמים
##יחו
בהרים
ישפוך
הנ'
##וקלין
גדלים
הז"א
ומוספין
מסתם
לחומר
מצטרפי
ארוכות
קע"ח
שטעון
הראשוני'
להזימה
נגל
##מה"ח
ומגיע
השליט
הגס
למכירה
בחמשים
הסוסים
ידליק
לרחל
תשכב
והשטר
רגלך
הטורים
בפירושיו
ונופל
בשאלת
יניקה
ומפרי
בתקנה
שמיר
מדוב
לתחלת
תתעבר
##פסיקתא
בלבבם
כשנמצא
כשמגיע
כדמיון
ותרגום
בתעניות
דעייל
דדהבא
גטין
רמ"ג
וכזית
בהודאתו
ועמוד
משולם
דבכ"מ
לבושין
ושקר
##סיפים
בי"ב
דסוגיין
סיכה
כמהר"ר
הפרדס
מתייחד
האליה
תקומה
הפלפול
פכ"ב
דאשתכח
ונגמר
תושבע"פ
ואורך
##שומו
השמע
מעשו
ראב"ד
בפשוטו
בוחר
נוטע
לצלן
הגדת
תכסה
חוקת
ובראש
יתחייבו
נתהו
סיל
לאזהרה
מחלון
נקנות
נדחין
סע"א
נצור
שיבואר
שיקריב
והב"ש
תדור
להחליט
ושהיה
עמיד
ק"נ
רחיצת
##סמך
שהכיר
בשמך
בא"ה
במכירת
ותז
##ציאותו
דגזירת
נשנה
ולהחמיר
בצבא
דרוסאי
דיתיב
דמסתפינא
מנסיא
אסתלק
חידו
המכריע
או"ד
התנגדות
אלדי
טעיתי
מזויין
תרנגולים
דילי'
זכרה
זכרם
לאישה
וחילו
בפרש
ועב
ונדמה
למנותו
שמקיים
לש"ס
היופי
מסי'
##גוזים
ששק
שיודעין
שהקרקע
השאלתות
תצאו
בטוחים
למלאכי
סניגור
ב"ג
שהראב"ד
אחס
שלשתם
ובתב
בשפופרת
ושטרות
ותלוי
##גייא
דשכ
שקרים
ומשלי
תשלי
##רשל
קדירות
והריב"ש
חלוש
וחומרא
נזכה
שתבוא
בעדותן
ורחבו
כהלכתן
בפיה"מ
כרה
##מטות
ובמל
ובמצ
זהו'
באפיו
דהיתרא
דעבודת
לתפלת
שמעמידין
כמצות
אשתני
צומח
ותרתי
לאביונים
שבספר
במצורע
שיטתם
שהזיקה
הנותרים
ועפ"ר
*.
מוי
עטרות
קבה
שכהן
##ילו
ואכילת
בשואל
ולחי
הדלי
ויזהר
הוכחת
ורחום
ורגיל
דמיקל
מרוטנ
##נוסחא
כהרמב"ן
ואשתכח
כייפינן
ביער
תוה
מוט
מדהו
וגלוי
לקבר
וזש"ה
רחבים
ויקנה
מתחתיו
לבתולה
לתה
שצד
שפשט
##ג"ה
##שלים
באורים
לחסד
לשנא
הללוהו
דקדיש
שישלים
לגברא
הסמיכה
ורשעים
נעם
ובתורת
נצטוינו
קניס
וחילוק
בהשגת
להודיעם
מיותרת
משובשת
יכבס
לרפאות
המיר
איסי
לשרי
מחית
זומם
מבורך
מכיוון
וחשך
כרמך
דידעי
למשכנו
זביניה
דהספק
עליהו
שהפירות
בסנדל
מדורה
בדעות
בדמיהן
ושמעת
מחלת
בגופא
דעתנו
פירושי
השבתי
הרוק
האלילים
מריח
גוונין
ואביון
קדמונינו
דבפ"ק
##ביש
והברכה
שהגדיל
הארבה
בש"ק
איכ'
הנבילה
בתואר
בפשט
ליצר
בגזלן
##נתך
##סיפה
##בונים
ידון
ורואין
לנפשות
חלקיו
שפתיך
והוצאה
הודעת
סודו
##לוניקי
השורץ
שיוצאין
גלויה
גילח
והחילוק
כמחצה
שהולכין
גיא
זכירת
חנא
חבה
##ינאי
לאשם
לעליו
החושים
##חלתן
מסתי
טוח
דחיק
##זכרה
שפוסל
רעוא
ראשיהם
תליתאה
סבורה
באהע"ז
בכוונתו
ושביעית
תפירה
ולרש"י
דחוקה
ולתפארת
התאנים
קדמוניות
נתרצית
והעושה
הופך
and
50
חצים
רכים
##דית
באף
היכלא
בפונ
מכלום
מנשיא
חלבה
בצריך
גרשתני
לדעתה
ומוצא
דמתר
למדרי
ונשלם
מקדשה
דטעה
שחוטי
שעירב
נכללין
מתגאה
הנוהגים
פושעי
וזרח
כגי
פצע
##דיל
##כדו
כדמעיקרא
דלבא
הנהרות
יקיימו
שהעביר
זכותם
כרבינא
לרופא
המבשל
מטראני
סלקין
רדי
רזין
שפלים
תנח
##יאן
לחתיכה
ודינא
הכוהנים
הוג
כהס
בשבתו
##כילות
לזיו
עשויות
ובר"ן
##ריסות
קרויים
עשאוהו
וחוזרים
הוספת
שיעבודא
והגר"א
דשיטת
תגיע
לאסרה
אוכלא
שכינת
דרכיה
מסויי
קטינא
השומא
ומילתא
בסימני
לידך
קנ"ח
הכתלים
עציץ
זמניה
שבזכות
רחמנות
למיהב
כצאן
רבם
העבור
בחיה
מסכה
לתור
הזריעה
סי"ג
דנגעים
ולהוסיף
ונתרצה
מדרשו
כפרתו
רצ"א
נפסקה
בשכבר
בתה"ד
סובין
ש"ל
##הדי
דהברייתא
במחתרת
מעדות
לבנך
אלמנת
שמשום
ויגדל
בלול
בעליל
נשמתם
ולהד
מקובלת
עניבה
וחוזרת
תורתנו
ומכסה
דהר"מ
שכוון
בתרוייהו
דנן
עלולים
##בל"ע
עד"ז
דגוד
##שיבא
יאירו
שריבה
ובה"א
תחוש
להיכנס
ארונו
בעושר
יסודו
דאסמכתא
מוזהרין
וטול
וברוח
חיד"א
עאל
ר"ו
##ככו
שכבה
מבשרו
ההדס
לפייס
מסול
מסכמת
בזריזות
דישה
עי"כ
קצב
##חנוני
תופסים
וכנגדן
לאוסרו
באמונתו
ובהשגות
מאיליו
ובכתובות
יכבה
כפשטן
פ"פ
תברכו
##יתינן
האזרח
בהרהור
ויפח
כהראב"ד
נאנסה
תקפה
ירעה
עושק
שסדר
הסומא
דהמלוה
הפנימיים
הקדישה
שהפקידו
אחוזתו
וידי
##בנאל
שנכתבו
ונבא
מקדושה
בכללם
שיכניס
הכוהן
##חזים
להוצאת
לנביאים
לצרה
##זיכין
כתוב'
ישאנה
הסיח
ואישת
אכולה
נתהוה
##שועות
אופה
כי"ע
ועק
הנמ
שנשר
בונין
יעמד
הפנוי
בעלמ'
בפר"ח
חליו
חולדה
כפייה
קצ"ח
מורינו
דמסברא
דכולא
עשייתו
בספריו
סוגיות
וחזינן
יפי
פונים
קג
וכנס
שא"מ
לעמל
העלאת
ונר'
##שאול
ושמרת
לפיו
##בישו
הלבונה
יתנהג
הסובב
הפאה
ניח
נהמא
מחומר
למיתלי
רסי'
רמ"ב
ובכי"ל
ומכש"כ
ושבועת
מלקט
שברך
##סדים
##בררה
שהב"ד
שארה
השבר
השעות
##יעתם
הרמ'
היכרא
למקומם
אפייה
##טלן
פרסום
הטבה
יבטח
##נענע
ולדינא
בבהמות
בדבורו
אימורין
שהובאו
ובפסחים
עמידת
##שלה
##סמין
##כשיט
שהאי
אלדים
מחמש
עצל
שוח
בידכם
הטחול
##חאב
ביהכ"נ
השוו
נגף
שיתיר
רעיא
בתוככם
צרכן
הדרשות
נוסע
קס"ז
הביטוי
לירושלמי
מיקרו
שסר
##כריה
ומנח
ומזכיר
ומנחות
בשבילה
דבורא
מתמלא
בפתיחת
שמקשה
לצמיתות
שנתקשה
ידעי'
ולפמש"כ
נרצע
ובעוד
כשנעשה
מיאוס
שוקל
מקיפים
הכנענים
ולטעמיך
נזי
שדייק
והגהות
עלת
האגור
בחיר
בחזר
שעיניו
ותלת
מכורין
תוצאות
בשבחו
קושיין
מצוים
גליא
נושאת
דרשאי
מלוכל
ומצורע
מתאים
בירושל'
מהגמרא
לכיס
סדק
סליחות
ק"ע
לאיל
##וארה
והיראה
וכ"ט
להנהו
במגן
ונכבד
ממטבע
יעשנה
מכ"ד
כלוקח
שתולה
תר"י
קוברין
פועלי
תולש
השמימיים
זקוקתו
מכשירים
דכת'
לדיעה
כשחזר
בחברתה
אפה
מ"נ
שולי
##ולגולת
##שוטי
דארץ
דהתוספות
##יעון
מאשת
ברשע
ושכרו
הלכ'
הפלאה
בנחלה
דשליחות
נערים
ובההיא
קיסר
והמקבל
להשגת
יגעו
ברוחו
יפליא
עיק
##יולי
המציאה
שבשאר
מצותן
למין
בחולי
ממיתין
ההול
ותשע
אענה
##גוים
הצניעות
דגזלן
שמאלו
ואח"ך
דכלל
שירבה
שלחתי
שנשאו
אמצעים
גוזז
תתבטל
לארוס
דאבה
אתעביד
בשירי
החסר
וש"נ
בבדיקת
##טענת
בנפיחה
הצטר
נימין
ששור
ופלוגתא
מוכרע
שטבעו
שזכות
נוסחת
שבכלי
תוקד
הנשרפים
תניח
הא"ז
ועס
הגמלים
שמכאן
שמתנה
ערכאות
נדרת
דמעיקר
נטרו
ושאלה
ורוצים
בבי"ת
מזיקין
תבואתה
נטוע
החלומות
היישוב
קאת
והלילה
דאפיק
##מעך
##ליטו
מתפרנס
מו"ר
דלאביי
הריבית
הס'
דתני'
נחירה
תהלתך
כסותו
ובמנין
והקדים
לפרה
הורדוס
עמודא
תסוב
למאור
בנשואה
גברו
נשתה
נתבע
תלם
##נעין
דאו'
קדושיו
והרואה
ערלת
משוחרר
שידמה
ומקצתו
מיבעי'
ולשמור
ככתובה
וחטאה
בעניותנו
עמש"כ
שזרע
תיהוי
##פשים
להשבע
בשטה
במחיצות
דבנו
התכונה
מומחים
מאתי
בד"נ
כמונח
ממ"א
דקרן
כשזו
כנש
שתיבת
וטובה
וכשלא
יאכלנו
מאוחרת
מוצאו
מלובש
בנאמנות
וישימו
45
יולדות
שגל
המפסיק
דהרבה
הקרו
שנער
בדמיה
מקלק
ולהשיב
בראשם
בצואר
עקרב
ביבם
ולשמואל
"‎.
הוקבע
עלויה
למקצת
##עתקתי
אודה
שאבדו
הגחלת
שיטעון
הוות
דתפס
נעלו
פליטה
בדיינין
אתאן
כשיצאו
סגן
המושכל
אבהן
הפילוסופים
##נוח
##ילד
דביאה
התנצלות
החשק
בגחלים
עוו
וחבור
חלזון
##כלומר
במסגרת
מסתלקת
ובסדר
הבהרת
רואהו
ואשמות
תגרע
הקלפות
שתאכל
דחזיא
לתרוייהו
להתייחד
א"ט
##זנא
##ic
ולשאר
##חיצתו
לבכות
מאמינו
ויברא
יעץ
אזכר
##בחן
להוציאן
והוכח
שזמנו
יחויב
##כסוסטוס
ב"ע
להסתיר
מעצי
דמינ
המשק
יבשו
תשמש
מטהרת
שנשברה
##עסקה
שמביאים
החיצוניות
לכרך
##טפל
ואיירי
ומות
ובזבחים
לדיר
יעיין
וח"א
##גיז
ירחיב
למחצית
ואבני
זלמן
נסתלקו
הרצועות
וציצית
להרבה
ובריא
בעתה
במקדיש
##וקן
##וקם
בגרה
מפיה
אבעיא
הכיסוי
לזייף
נעביד
ומתירין
רעיון
##קבלת
שיזדמן
מעכבי
דיקלא
46
משוט
עע"ז
עלוהי
##צוב
מהמו
בהנהו
ישלוט
בחסר
ממצוה
##טרן
הכפרת
הסולת
כתרומה
דשעבוד
אוריתא
מטרו
פרוכת
##כנזים
כשנולד
שיחלוץ
זרעה
גרירה
מלאכתך
קורבא
נשותיהם
הסתכל
כפירות
נודה
ספו
##זלא
האמות
שלטו
ולאסור
למפשט
בסברת
בבינונית
ורמשים
דומם
המומחה
דמשם
ומועד
ימיני
מרוצה
דמספק
ברוקא
המלמ"ל
הדקדוק
סנהדרי
כברייתא
ולדעתו
שנשים
##ביץ
לתיבה
לכעוס
המומר
יפוי
נזירים
נזקא
קס"ח
לשתותו
לשתיהן
גנז
מהראשונים
הודיעני
מהפוסקים
הוצרכה
אופני
##פרן
ולבל
כמו"ש
עצבות
מגודל
וראינו
כמשא
שהבינו
ליבעי
גריזים
הספרדים
והדומה
דהילכתא
ותעשה
וחושב
לתקנה
שגירשה
יאסרו
קיימות
אפוטרופא
להתייבם
חתוך
##עקר
והחלב
בעדת
במגלה
הגברא
ודקא
וקח
נתרו
ותרגם
##פלגו
גדעון
לכסף
ואמרתם
לציר
דמתרץ
כמשנה
דשייר
ערוגה
ובזוהר
גנבי
להכחישו
דנפיש
בושט
יברר
##נדה
שלמו
וביחוד
השדים
באד
הבטן
מאפה
##שתמש
לקלא
שיחו
##רענץ
##פתר
##ערותא
ויובל
פתג
שהעמידו
וחוט
הלוואה
לעומתו
והכלים
ושעבוד
להטפיח
ובשביעית
משמתינן
::
תכון
שאמו
האוהב
ובט"ז
משבי
שבמס
הי"ו
שמ"ר
דמנה
לקדשים
בבקשה
וד"ה
ההפכים
הפוסל
כוז
אפשיטא
ביתומים
חזרתי
בירק
מתערב
מרובעת
בגאולה
ד"ל
יבער
עגלים
##בני
##בשה
והצילו
והקהל
הדמאי
החובה
ממכרו
בבנות
מקוצי
והשמיט
דדבריו
שאיפשר
גללים
אפומא
דבגט
לפורעו
תפסיד
##it
##פי"ז
המ"ע
בהמתך
התמורה
דמחשב
בגטין
##סיפו
שישחוט
ואמרנו
יפרוש
בארצכם
בישולו
פקידה
לקנותה
חורבה
זולתך
הכוללים
מאורסה
##משיכו
קצי
##ז"א
וכחו
וכסות
##קובל
באינון
וליקח
בלבן
שבויה
אמהות
דמרן
למזון
ונקראו
והילכתא
of
כריש
עיי
##חינו
שאד
##בליע
בהליכה
בשמונה
לחק
לקותא
וימכר
דלשם
שמעידים
בז"א
בשכ"מ
לתרומת
מוכיחין
הקהילה
##מ"פ
שהפסוק
מחלו
ומעשיו
הילל
שאלתם
בהרחבה
שיחשב
קרבים
הפנימים
##נדריא
##פצה
##פצי
בעשות
למיהוי
ליחוש
מדינים
דמלה
##פסלו
##בתיה
##תוספו
מסברת
שנאנס
גביית
דחיל
האונאה
לקוחה
שיקרה
והימים
ואסורין
משמרתו
מקדישין
ומזוני
שכבשו
ליאסר
גשמית
הצום
פינו
רזי
##לפי
##צצין
והוסיפו
להצי
##ישתא
ומלו
ובפרי
אתני
בהשי"ת
העשירות
למולך
לאוכלה
לרשת
שרי'
לזבוח
חשיד
אמותיו
דבהך
תכשיטין
דטעמיה
מלבושים
מחזקתו
ליעזר
בחקירות
49
אעל
יסתכל
לנותן
וכשע
##יבשו
דאכלה
מהגדולים
בענבים
בהירות
ישורון
לבצוע
ברשעים
בוז
בגבה
בב"ת
יתכוין
וקושיא
ופוק
שמתע
השבירה
דליתני
ביבנה
מנהגינו
לתקלה
דלשמואל
הראשונ'
טורי
קרים
שמלאי
מדכר
בדרב
##לקותו
מליל
יתגבר
עונשים
##חלתי
לתנו
לתחתונים
כתקנה
שיוסיף
ובמשה
דהאיך
קניני
והצדיקים
החדשות
אומדן
ולצורך
הסירכא
במרומיו
סעודתא
##גט
לאצטרופי
וכרות
אתינא
באחרת
יונקים
הקלה
מוכה
בספור
##ייכו
דמותא
כדכתי'
הפתוח
הועד
חלקך
בנוה
השלשים
שיבוש
המסית
וילדו
שילמוד
ואסיק
תקנתם
משמרתי
למודים
רדב"ז
##ודקת
ומיני
ובכור
בארי
העש
מפירין
כשנש
טוב'
להתפאר
אמורה
ואחיה
##קלס
##עוררת
חותמו
בהקדים
##למודו
הפשיעה
הכה"ג
חקוק
שורך
תרא
##יתור
וכתובה
##רובו
אומץ
ולאי
מדיוקא
החדוש
דמני
סיסרא
השוכן
תאיר
כותבת
ויעוין
ויולדת
מיתתה
נרדף
זב"ת
מנהגים
סגנון
והמשפטים
##עתייהו
חברייא
כשהאדם
גוא
ללון
שמלה
ושכב
דמינה
##טליה
המובן
לזבוני
חדרי
שהאומר
שיודיע
זבנה
מדרכו
מדה"ד
ואומ'
נוקפו
פרשנו
רנ"ב
יתוקן
תשמורו
נמרץ
דטוען
וטומאת
חמוץ
##עקו
שבשוק
לע"א
התשוקה
יוס
שתשרה
ארצכם
זיזין
והאיסור
בהתראה
ועומדין
שאהיה
ד"ב
מרומה
##עברה
ואהל
שהעבד
מהכתוב
השלימו
הנגב
בקידושי
יערים
בי"ע
כנדון
כהצד
##קי"ל
לצדק
ויתחייב
דאיתרע
בישולי
##בשלום
נזכרת
עשייתן
דמדמי
ונהרג
מוהל
החרשת
הכריעו
שהקשינו
##ברג
והש"י
לובן
שלמ
מהברייתא
ומעי
אונ
ונשובה
הפשוטה
ביכל
וחור
וחמר
אהלות
שחזרה
שגופו
שרואים
##עזרה
תתחתן
הישרה
למחרת
דיהי'
"‎,
מובהקין
קובעים
פלארענץ
שאיסורו
פלאי
##עפים
##ריבן
ולכו
לע"ה
לעבדי
לח'
##פקיע
ותשא
ותחלת
מסנהדרין
מגבה
להעמידו
צרתם
##כניסם
משמשין
שגדלה
רפאל
לקנוניא
וי'
ייבם
נשוב
##מחא
באילנות
הנקי
החמש
דרס
הכתו'
הרבו
למעליותא
מגול
מזלות
במשמר
הולכות
רגליך
לקבלם
ומסרו
חסדיו
יהיבנא
ונדבה
יבושו
לנסכים
הגבאי
הברה
##בעת
##ציתי
##מאתן
דאות
ומפסיק
בעיה
בתלתא
מוטבע
מאהל
לקדם
שיירא
דקין
דלכולי
כשואל
מסוכה
שנאכל
נדחקו
רעיתי
ועדיו
לאיזו
דבשטר
גלית
הראויות
ושרץ
היתרון
הקדימה
עתיקים
בלשכת
יוליד
תגל
וכמאן
ומזוזה
אתיין
באכל
דבמשנה
ונדרים
ושס"ה
שעירים
ההשלמה
##קבצים
כהת
[...]
